[PAD]
[UNK]
[START]
[END]
մասք
"
%
'
,
.
«
»
՛
՜
՝
՞
ա
բ
գ
դ
ե
զ
է
ը
թ
ժ
ի
լ
խ
ծ
կ
հ
ձ
ղ
ճ
մ
յ
ն
շ
ո
չ
պ
ջ
ռ
ս
վ
տ
ր
ց
ւ
փ
ք
օ
ֆ
։
֊
եւ
են
որ
##ն
հազար
ու
երկու
##ը
համար
հարյուր
էր
հետ
մի
##ի
այս
այդ
այն
իր
մասին
թե
նաեւ
##ց
եմ
էլ
չի
ես
##ով
մեկ
կարող
նա
ոչ
ինը
կամ
մեր
հհ
իսկ
պետք
շատ
հայաստանի
բայց
երեք
մեջ
ենք
այլ
ինչ
ավելի
եթե
##ների
##ում
ինչպես
էին
վրա
հետո
նրա
նոր
##ներ
մենք
հինգ
##ները
երբ
իրենց
որը
քանի
##ին
չորս
ժամանակ
մեծ
դա
կողմից
##ու
միայն
չէ
որոնք
առաջին
չեն
բոլոր
հայ
անգամ
սակայն
ութ
##ս
տաս
իմ
վեց
այսօր
եք
տասնութ
յոթ
նրանց
քսան
տասնինը
ձեր
ընթացքում
որպես
տասնյոթ
պետական
##ից
ազգային
մոտ
##ք
արդեն
եղել
ամեն
##ա
հանրապետության
տեղի
մինչեւ
ունի
առաջ
կը
##եր
տասնհինգ
զրո
ինձ
կա
տասներկու
դեպքում
նման
քաղաքական
լավ
նրանք
նախագահ
տասնմեկ
ըստ
տասնվեց
տարի
հայկական
դեմ
ասաց
նրան
սա
ապա
դուք
տասնչորս
##ության
վերջին
հայաստանում
միջազգային
##երի
բան
տասներեք
ասում
ում
ասել
տարբեր
նչ
գլխավոր
վերաբերյալ
որի
դուրս
##երը
մեզ
թվականի
##ային
որեւէ
ին
կան
ամն
չեմ
ով
##ր
երկրորդ
դրա
ձեզ
առանց
որտեղ
մէջ
նկատմամբ
տալիս
կարելի
մեկը
լինի
##ություն
հենց
կարեւոր
##ական
քան
հիմա
##ությունը
հայաստան
օր
##ան
մարդիկ
երեւանի
եւս
##դ
մարդկանց
դեռ
հնարավոր
##ել
##կ
ունեցել
ուզում
նույն
##յան
որպեսզի
միջեւ
լինել
հայտնի
անհրաժեշտ
հայոց
դրանք
պիտի
որովհետեւ
##են
տնտեսական
ընդհանուր
չէր
պատճառով
երկրի
ազատ
կառավարության
նախկին
մարդու
երեսուն
իրեն
օրը
այստեղ
բարձր
շուրջ
հիմնական
մը
մարդ
##մ
նիկոլ
##ո
որն
թվականին
միշտ
որոշ
աժ
զարգացման
քսանմեկ
կապված
դու
ժամը
##ե
տարվա
քրեական
էի
տակ
ամբողջ
կլինի
կարծում
ունեցող
երեւան
նախագահի
տեսանյութ
այնպես
ովքեր
քիչ
թվում
չկա
որոնց
արցախի
ռուսաստանի
հատուկ
ճիշտ
օրինակ
փոքր
միջոցով
քսաներկու
աշխարհի
##ված
ունեն
լինելու
##տ
նույնիսկ
##ներին
համապատասխան
նշել
##ությամբ
համաձայն
գալիս
##ող
արդյունքում
պաշտպանության
քո
քսաներեք
նախարար
թույլ
մյուս
հիսուն
##ման
շարք
##ներն
սերժ
բացի
դեպի
անում
քեզ
դրանց
սուրբ
##վում
##ած
արտաքին
վարչապետ
կյանքի
մարտի
մարզի
քսանհինգ
անվտանգության
##եց
##է
##լ
ոստիկանության
նպատակով
այնքան
##յանը
ձեռք
ադրբեջանի
անդամ
հա
նշեց
##վի
սոցիալական
ցույց
հայաստանը
շրջանում
##վել
գտնվում
հնարավորություն
հաճախ
հարցը
քաղաքի
եկել
##ութեան
##ներով
աշխատանքի
սարգսյանը
քսանչորս
խորհրդի
մեկին
##ուն
ինչը
յուրաքանչյուր
թէ
այժմ
արմեն
այսինքն
բազմաթիվ
բաց
կազմում
ծառայության
հանրային
ծրագրի
երրորդ
անել
##ներից
օրենքի
տեղ
փաշինյանը
տարեկան
երկար
առավել
աշխատանքային
տվել
##այի
հայտարարել
##էն
հայտնել
սեփական
նախատեսված
ապրիլի
հատկապես
մայիսի
գործում
տա
անձանց
ցանկացած
կառավարման
ցանկանում
օրվա
գտնվող
սահմանված
ինքը
կատարել
ղեկավար
հանդես
պաշտոնական
դրամ
իհարկե
չենք
դատական
ունեցած
երեւանում
լուրջ
նախարարության
թուրքիայի
գործունեության
ժողովրդի
մասը
##եք
տալ
երկրների
իրավական
պահին
ստացել
այլն
ներքին
այդպես
համայնքի
չունի
##յանի
լավագույն
հասարակական
նե
գրել
##յ
##յի
ողջ
վարչական
մինչ
որոշում
առկա
խոսքով
մեկի
փորձում
քաղաքացիական
այնտեղ
նախորդ
համակարգի
ից
ուղղությամբ
նշված
դարձել
ինչու
ռազմական
նշանակում
հանձնաժողովի
անվան
ինչո
հաջորդ
հուլիսի
սույն
հհկ
լինում
ռուսական
##վեց
նույնպես
##իս
հունիսի
շրջանակներում
քառասուն
պատրաստ
մասնակցել
մասնավորապես
ներկայացնում
եվրոպական
պարզ
ինչի
տեսնում
հին
հոկտեմբերի
հաշվի
համաշխարհային
դատարանի
համարում
##ութիւն
քսանվեց
իրավունքների
չնայած
կատարելու
խմբի
հարցում
##ներում
երբեք
գործող
որոշակի
որքան
անց
ընդունել
սարգսյանի
մամուլի
բերել
սեպտեմբերի
քսանութ
սիրում
իրենք
երեխաների
գնում
##ութիւնը
հետեւանքով
տարածքում
քսանյոթ
իշխանության
քննչական
նախագահը
այնպիսի
անկախ
հարց
այսպես
կրթության
հետաքրքիր
կանանց
վարչապետի
ուղղված
ան
տուն
այլեւ
թիվ
ռդ
հոդվածի
դեկտեմբերի
սկսել
հարցերի
գրում
դառնում
ֆինանսական
կուսակցության
իրավունք
նոյեմբերի
երկրում
հունվարի
խնդիր
փետրվարի
ունենք
ինչպե
արել
շարունակում
ավելին
բժշկական
գործով
գործ
##կի
դեռեւս
##ոն
աշխարհում
ծանր
ոլորտում
արագ
կրկին
ունենալ
##եան
##թ
պետության
շնորհիվ
ներկայացրել
դժվար
մարմնի
կենտրոն
պատմության
ընկերության
վերաբերում
արթուր
նվիրված
ուղղակի
կենտրոնական
առումով
հարցին
համագործակցության
խնդիրը
աշխատում
դե
ապրում
խոսում
պարզապես
րա
կառավարությունը
որում
էինք
ալ
ահա
դրանից
առանձին
վարչության
ինքն
քսանինը
ոչինչ
անձնական
ունենում
մշակութային
երիտասարդ
մշակույթի
աշխատել
##վեն
լուրեր
արդյոք
մեկն
տվյալ
տեր
այլեւս
գործի
վատ
գրեթե
պատգամավոր
կերպ
հասարակության
իրանի
սահմանադրական
##վող
կարողանում
ներկա
մլն
դրական
վեր
թթ
միասին
տիգրան
կարեն
հարաբերությունների
##քի
մարդը
պատերազմի
հերթական
հայտնում
դիմել
տան
օգոստոսի
բնական
հետեւյալ
հիմնականում
հանդիպում
կազմակերպության
հանդիպման
վաղ
ժողովի
համատեղ
##եմ
կյանքը
իրական
արդյունավետ
նախ
ընդամենը
##որեն
տնօրեն
քաղաքում
պատասխան
ռոբերտ
փաշինյանի
խոշոր
արտակարգ
##ցի
դավիթ
էս
այո
հստակ
ուրիշ
երբեմն
ստեղծել
միության
ադրբեջանական
շրջանի
լեռնային
առ
##վ
կենտրոնի
ամիս
էդ
թող
խնդիրներ
հանդեպ
համարվում
անձի
##երով
##երն
ղարաբաղի
մնում
մասնագիտական
դպրոցի
երկիր
վրաստանի
որին
ընտանիքի
ուժերի
գեղեցիկ
միակ
##գ
նշում
երեկ
գիտական
խոսել
կարգով
##չ
ընդ
##ելու
բոլորը
տարիներին
##ես
նախարարի
լեւոն
առջեւ
համալսարանի
միջին
եկեղեցու
թուրքական
երեսունմեկ
հասկանում
##ենք
երեխայի
օրերին
պայմաններում
պատմական
խոսքը
հարցեր
կոմիտեի
ժամ
##ուած
էջ
վրայ
ուր
բավականին
օրենքով
գագիկ
կոչ
որոշումը
##ակ
խիստ
պես
##տի
տեղական
ժամանակակից
ցեղասպանության
հերթին
աշխատանքը
այնուհետեւ
##ալ
բաժնի
ուսումնական
կնոջ
ուղիղ
հիման
գյուղ
##յում
կրթական
##ւ
նորից
կինը
խորհուրդ
անունը
շաբաթ
խնդիրների
դարձավ
ակտիվ
իրականում
եվրոպայի
այդպիսի
դատարանը
ուրեմն
կողմ
##զ
քաղաքականության
կապակցությամբ
պետ
հիշեցնենք
պարոն
##կան
գործը
միլիոն
պահանջում
մա
վաթսուն
կենտրոնում
##ղ
փոփոխություններ
վարչապետը
հոգեւոր
ստանում
խնդիրները
կարծես
լինեն
թիվը
ծրագիրը
արամ
գործերի
##քը
հանրագիտարան
քաղաքացիների
հանդիպել
քառասունհինգ
լրագրողների
##սի
ուստի
ունեցավ
դիմաց
արմենպրես
երեսունհինգ
պայմանավորված
ընտրությունների
հետագայում
խմբագրել
զինված
աշխատանքները
ստանալու
սկսում
կյանքում
ներկայացված
վիքիպեդիա
իրավիճակը
միաժամանակ
տալու
խորհրդարանական
բա
միեւնույն
խմբակցության
աշխատանքների
որից
իրար
ոք
զրույցում
##երում
կապ
##շ
պարտադիր
ընդհանրապես
կախված
դրան
խաղում
##նի
ծրագրերի
կարմիր
կատարվում
գտնել
գուցե
սեւ
ձեւով
մշտական
ամերիկյան
ուշ
##րի
չեք
որոշման
կին
թեեւ
չէին
աշխատանք
փոխարեն
ազատության
կարծիքով
ժողովուրդ
##ծ
իրականացման
մակ
ամենը
երկիրը
պայքարի
փոքրիկ
ուժի
առնելով
մարդկային
կերպով
ութսուն
սպասում
բավական
կարճ
տարիներ
էջում
պատրաստվում
ուժեղ
գործողությունների
կազմակերպությունների
խաղաղ
մտածում
հարկ
##եցին
զգում
ֆիզիկական
կոնկրետ
չորրորդ
ստիպված
անցել
անցած
ունենալու
ռուս
դպրոց
մահվան
տարիների
գոյություն
մայր
արեւմտյան
##ությունն
գյուղի
բարձրագույն
հետագա
քոչարյանի
մասի
##հ
հարաբերությունները
մահացել
կար
մարմինների
օրենսգրքի
օգտագործել
միջոցների
նախարարը
առողջապահության
գա
տանը
դեպքի
ընտրական
նախկինում
նախագծի
##յա
##երին
աստված
պատճառը
հարկային
արվեստի
հարցի
չես
որոշել
վստահ
ծնվել
հետեւաբար
ստանալ
այցելել
կունենա
այդքան
ապրել
դեպքերում
յոթանասուն
սպիտակ
մասնակցում
ֆեյսբուքյան
առաջարկում
անմիջապես
եկավ
տեղում
##մամբ
ջրի
միացյալ
տարածքային
կարիք
##լի
սխալ
հիմնադրամի
համակարգը
հայտարարեց
դոլար
գալ
մնալ
բարի
առթիվ
էջը
լրատվական
ոլորտի
րը
իրականացնում
հայկ
հոդված
իրավունքի
իննսուն
արդարադատության
բիզնես
չպետք
ներկայացնել
տեղակալ
կարգավորման
լայն
լի
ասած
ժողովուրդը
քննարկել
որով
բնակչության
ծառայությունների
դառնալ
տվեց
տեխնիկական
գիտության
վիճակը
##կը
խնդրում
մասով
բողոքի
##ութեամբ
այնուամենայնիվ
հրապարակ
ֆրանսիայի
բարդ
իշխանությունը
մաս
##ացման
անցնում
իշխանությունների
բանկի
ուկրաինայի
իսկապես
րու
երեսուներեք
ավագ
դեպք
խումբ
րի
գործընթացը
հեռու
խորհրդային
օգտակար
կատարում
հայերի
##երից
առնվազն
կլինեն
երեսունյոթ
հարավային
հայաստանից
շրջանակում
շարունակ
բերում
իրականացնել
նի
կանայք
ամենայն
ուներ
փակ
գումար
մարզում
եահկ
կողմը
նախագիծը
դեպ
գործունեությունը
տնտեսության
գույքի
ուրախ
վիճակում
տարին
տեղեկատվական
ստեղծված
բանակի
երեսուներկու
աած
մնացել
գոնե
տրվում
տեսնել
ունեմ
ժամանակի
##յին
հույս
եղած
չափով
հակառակ
լուսանկարներ
հանդիպումը
##աց
սկսած
արա
րոպե
հյուսիսային
դիմում
քննարկում
##դի
այսօրվա
հիսունհինգ
ավագանու
տեղեկատվության
մնացած
տեղեկացնում
կատարած
տեղը
արեւելյան
պարագայում
սպասվում
դեսպան
նշենք
կատարված
միջոցառումների
մասնակցելու
արդյունքները
տեսակի
իշխանությունները
իբրեւ
հասել
հեշտ
լույս
հանգիստ
աշխատակազմի
հայտնվել
##իկ
##ներու
միջոց
նշվում
ժողովրդական
տեսել
##խ
վտանգավոր
թուրքիան
փորձել
շնորհակալություն
երկրներում
երեսունվեց
հանրապետական
վմ
իրականացվում
տեղափոխվել
հարությունյանը
զինվորական
##անի
ցածր
պէտք
կարգի
փորձ
նախարարությունը
լրացուցիչ
ժամանակին
հանրապետությունում
ջուր
կանգնած
էլի
հովհաննես
վերջինս
սամվել
երեսունութ
ներկայացուցիչ
քառասունութ
կապերի
շենքի
##պ
լղհ
հանդիսանում
##անում
երեսունչորս
նախնական
եկեղեցին
վերջ
հայտնաբերվել
օգտագործման
ներկայացուցիչների
բացասական
մինչդեռ
հակամարտության
ուշադրություն
հյդ
միջոցներ
սիրելի
##ուց
հիշում
կմ
##ումը
ամբողջությամբ
արդյո
##երորդ
շուտով
թեկնածու
##ռ
էն
##ար
ղեկավարի
անդամների
վերջո
տվյալների
##բ
տե
##սը
երեւի
եթէ
քառասունչորս
պահել
այսպիսի
փոփոխվել
վլադիմիր
վիճակի
ակնհայտ
քառասուներկու
կողքին
ապօրինի
քայլ
բավարար
աշխատանքներ
շատերը
սեռական
ընկերությունը
հավաքականի
մարմինը
չափազանց
փուլում
էլեկտրոնային
պատասխանատու
բոլորին
հրապարակել
գտնում
ունենա
վերջերս
ենթակա
մարտական
երեսունինը
կորոնավիրուսի
գնալ
ադրբեջանը
խնդրի
ընդունում
չունեն
հարկավոր
##ությունից
արտահերթ
մտնում
քառասունմեկ
ծննդյան
պատասխանեց
չկան
ներ
կարդալ
ժողովրդին
արարատ
դատարան
անդրադառնալով
նիստը
դպրոցում
ինչն
բաժին
աւելի
միասնական
պատմությունը
աստծո
սովորաբար
միմյանց
նը
հեղինակ
ժամանակը
չէի
նպատակն
երեխան
գյուղում
ռուսաստանը
սովորական
կայացած
կգ
վա
քայլը
հիմք
անընդհատ
խորհրդարանի
մաքսային
պակաս
կատարվել
անձինք
թեմայով
անձը
շուտ
պատմում
քննարկման
գործել
հայերեն
ծրագիր
ինչքան
եղավ
պահպանման
թիմի
նրանից
##ացնում
գեւորգ
հաղորդում
գալու
վարդան
##ացնել
առաջիկա
կազմել
հինգերորդ
կրում
հայտնեց
պն
պատճառ
թուրք
հասնել
նայում
ապահովել
թվականից
հասկանալ
##կա
փոփոխությունների
քառասուներեք
բհկ
սկսեց
ղեկավարը
իրականացնելու
հայրը
քառասունվեց
օպերատիվ
նպատակը
ընկած
անելու
առողջ
հարցերը
##չի
ուժերը
եպհ
հանուն
նորություններ
քառասունյոթ
ակումբի
երեխաները
աշխարհը
անհատական
մարդուն
##ոյի
նշանակություն
մշտապես
կազմակերպել
##որ
ընտանեկան
այսպիսով
առավոտյան
ճանապարհը
լսել
սովորել
##ամյա
երեխաներին
նրանցից
օրենքում
որոնցից
##եալ
ինչպէս
օգնում
հետեւում
փոխել
կապի
նպատակ
անոր
ներքո
շարունակվում
քաղաքացի
իրավաբանական
նիստի
որոշմամբ
պետությունների
երեկոյան
քառասունինը
հիսունվեց
հաստատել
պատմություն
լինելով
##վեր
շրջան
գրիգորյանը
արցախում
պա
այ
հարուստ
հիսուներկու
##նք
հիսունմեկ
շիրակի
ուժ
նկատի
##ֆ
հայտարարություն
արյան
վայր
ֆիլմի
հարցերով
ազդեցություն
երաժշտական
կատարման
անի
որդին
սահմաններում
գազի
ջան
ճանաչում
շարունակել
պնդում
##ացել
նորմալ
օգնել
ներկայիս
հիսունութ
խումբը
##թի
ալեքսանդր
համոզված
կտա
մակարդակի
ստեղծվել
դրությամբ
կայուն
անդամները
սկզբում
հատ
համակարգ
գրիգոր
սիրիայի
ագն
ճանապարհով
սդ
##ոս
անունով
քաղաք
##ելով
տանում
ընդդիմադիր
հիսունինը
հիսունյոթ
աշոտ
հիսունչորս
անկախության
բաներ
երեխա
թերեւս
դեր
ընտրել
հիսուներեք
սիրո
հանրության
ինստիտուտի
ապահովման
արսեն
իրականացվող
լուծում
ամսվա
մասնակից
մէկ
ծառայությունը
չգիտեմ
բոլորի
կյանք
ընտրություններին
գիշերը
աչքի
հայաստանյան
լուծման
պատասխանել
##ացած
երեւում
փաստ
տեսակ
գործընթացի
ղարաբաղյան
քանզի
օրն
ոսկե
անվճար
սերգեյ
օգտագործում
դերը
առաջնորդ
նիստում
ասեմ
վաղուց
հաշվով
դրանով
ներկայումս
##ոյ
գումարը
օգնության
##ոց
ստացած
կարգը
իննսունինը
ունենալով
բանի
ամբողջական
աննա
ստեղծում
վերջնական
նշելով
##մի
առաջանում
բնակարան
սարգսյանն
փոփոխություն
ստացվել
պարտավոր
դեպքերի
տարածք
էության
ինչպիսի
փողոցում
իսկական
փող
ժամանակահատվածում
իրավունքը
զի
համակարգում
հայաստանին
առողջության
##օ
գրական
մանրամասն
միջավայրի
աջակցություն
կարապետյանը
հովհաննիսյանը
մանկական
գործադիր
ներկայացուցիչները
##տը
գործողությունները
ընդունված
մեկում
տեսանկյունից
տեղեկություններ
ժամանակավոր
իրավիճակի
սրտի
օգտագործվում
տեխնոլոգիաների
ապագա
հաճելի
դնում
հկ
օրենքը
ռուբեն
գերմանիայի
մեկնել
բնականաբար
հասնում
##գի
զբաղվում
հարմար
պայքարում
ծրագրեր
խորհուրդը
ճանապարհին
##ներուն
##ակի
վերաբերող
արտադրության
հրաժարվել
մոսկվայի
հայտարարում
իրականացնող
հավատում
հայտարարությունը
տրված
բուժման
նախատեսվում
##զի
քարտուղար
տոկոս
թատրոնի
դարձնել
##իք
քաղաքը
շարժման
ենթարկվել
զգալի
առաջնության
անպայման
ճանապարհ
##յանն
ֆուտբոլի
վերջապես
վերջինիս
##իր
լիներ
ների
ավարտել
առեւտրի
գիրքը
ընդգծել
մայրը
կողմի
կեղծ
խաղի
լեզվի
##ուի
արման
ելք
անդրադարձել
համարել
պայմանագրի
լուծել
աջակցության
պահպանել
ավանդական
տիկին
նախագահական
անձամբ
մասն
տոկոսը
գրքի
քաղաքապետ
ոստիկանությունը
ընտրության
իննսունհինգ
##վեցին
թվով
ներս
պետությունը
##անա
հրապարակում
դարի
համայնքների
գտել
քննության
ամենամեծ
քա
հայաստանն
մարզային
սփյուռքի
ռուսաստանում
ար
արմենիա
թերթը
տաք
ապահովելու
մասնավոր
փաշինյան
մտածել
անշարժ
մաքուր
գիտությունների
յոթանասունհինգ
վերջում
տարբերություն
տունը
պատասխանատվության
զբաղվել
քննարկվել
երիտասարդական
տղամարդկանց
պատշաճ
հապկ
ապրանքների
ուղարկել
իննսունութ
հիվանդության
ասելով
մասում
հասնելու
ապահովում
դրված
խա
սահմանադրության
ռազմավարական
ծառայություն
հարցերին
թեան
հայտ
պաշտոնը
մասնակցությամբ
խոսք
հանդիպմանը
կենտրոնը
առեւտրային
ստեղծման
##անք
##ոնի
վաղը
ստացվում
կու
ներկայացնելու
պարբերաբար
օգնություն
##ացում
ներսում
երջանիկ
##անը
անձ
կոչվում
գրանցվել
դրամի
կենդանի
առաջարկել
վերաքննիչ
փբը
լոռու
լիարժեք
ոնց
ստացված
##եի
տարածաշրջանային
ութսունութ
ուժը
տվյալները
գնահատում
պարունակում
հաշվին
հզոր
ասենք
աջ
զոհերի
դուր
նյութեր
տրանսպորտային
ցավոք
գրիգորյանի
բերման
իննսունմեկ
առաջինը
##ացված
##այ
գծով
փաստը
հրաշալի
իննսուներկու
երեխային
գրված
տարածաշրջանում
գրականության
արժանի
ձայն
բացառիկ
##ությունների
##ինք
ներառում
իննսունվեց
քրիստոսի
տնօրենի
պատմել
միանգամից
թվականներին
պայմանագիր
քոչարյանը
բերելու
գյուղատնտեսության
հանկարծ
հոգեբանական
քաղաքապետարանի
բյուջեի
վեցերորդ
պատասխանը
տեսքով
##ստ
թուրքիայում
խսհմ
քայլեր
ելնելով
համապատասխանում
արարատի
գաղտնի
լրիվ
պահում
դիվանագիտական
հատվածում
դնել
իննսունչորս
պետություն
նշանակվել
փաշինյանն
որակի
հիվանդությունների
քաղաքականությունը
ֆիլմը
ման
սուր
վնաս
ոմանք
նատօ
հայերը
որպէս
պարզել
խաղաղության
ստեղծելու
վաթսունհինգ
արդյունք
թեման
արդյունքների
սկսվել
հավանաբար
քաղաքային
քաղաքականություն
գործնական
տարածված
այցի
ներառյալ
սպանության
տասնյակ
ամէն
խնդիրն
պաշտոնում
հայրենիքի
արայիկ
լու
նստած
կարծիք
կտրուկ
նախագահին
գնացել
իմաստով
մենակ
ոլորտներում
օլիմպիական
օտար
ծառայություններ
շրջակա
հանել
օրինական
անհրաժեշտության
բարեփոխումների
նյութերի
արցախ
##ջ
փորձը
պետրոսյանը
հավասար
դարձնում
##նում
աշխարհ
կից
տեղեկատվություն
գործիչ
կազմակերպման
ընկերությունների
##իա
կլիներ
հարցով
##ովի
փաստացի
տարում
##ացումը
առմամբ
կողմերը
կրոնական
##վա
պետի
ներկայացվել
ընթացիկ
դատավոր
փոխվել
հարակից
ագ
բռնության
թողնում
ավարտին
վե
ներկայացրեց
փորձի
առիթով
գեղարվեստական
մասնակիցների
դրել
կարո
սյունիքի
նախընտրական
իննսունյոթ
այսուհետ
առիթ
##երու
ինքնուրույն
գիտեմ
հարգելի
միջոցները
տեղյակ
գեներալ
կարողացել
թարմ
##այում
ազդեցության
հակոբյանը
ճանաչել
րե
օրեր
ենթադրում
ընտանիքը
բոլորովին
դաշտում
գնել
առնչվող
ընթացքին
հանձնաժողովը
սկսվում
ազգի
բոլորն
ընկնում
տրամադրել
կանաչ
քաղաքացու
կոդը
էական
արցախյան
մինսկի
ծնված
անկեղծ
կազմակերպված
գնա
դատարանում
մոսկվայում
բոլորս
պատկանում
##նա
հարուցվել
արդար
վկայում
կայքում
##յալ
ազատություն
մեղադրանք
բնության
կբ
սննդի
լսում
տարածքը
մեկից
մրցույթի
փաստորեն
վաթսունութ
##կում
թիմը
իբր
հիանալի
ամուր
տված
մուտք
ընթանում
օրենսդրական
##ավոր
ուսանողների
բերված
իրոք
տավուշի
գրող
հոգու
ետ
առաջացնում
##դը
սարգսյանին
նախաձեռնությամբ
յոթանասունչորս
գործունեություն
##ովը
զարգացմանը
ձախ
##եին
գլուխ
գործարար
տես
ծրագրերը
ընդունվել
սարգսյան
վճռաբեկ
եկած
աղջիկը
ընտրությունները
##էր
վրաստանում
առաջատար
սահակյանը
ձայնը
հասարակություն
տարածել
աշխատանքից
եատմ
լուսանկար
միջոցառումներ
կրթություն
պեկ
իրականացվել
մլրդ
րն
գլխավորությամբ
աշխատակիցների
քաղաքապետի
զենք
կուսակցությունը
ցանկություն
հայտարարության
##ելի
շփման
կես
եվրո
տարբերակը
լիգայի
##յով
գրասենյակի
լեզուն
շրջանների
զանգվածային
նյու
իննսուներեք
##շի
ամերիկայի
իրավունքները
լիազոր
հեղափոխության
ներդրումային
պայմանները
կառույցների
փաստաթղթերի
նմանատիպ
մար
բաժնում
հսկայական
ենթարկել
##ժ
թրամփը
լա
գործողություններ
կոռուպցիայի
պահելու
ութսունհինգ
գրավոր
տալով
##եանի
##ությունները
հոգի
թեթեւ
բաղկացած
ուշադրության
հոր
ճանապարհային
ինչպիսին
բնակիչ
չե
գարեգին
##րել
ստեղծագործական
առաջադրվել
##նել
սպորտի
##յանին
հողի
զլմ
արտակ
վախենում
իսլամական
արմավիրի
նիստին
պայքարը
պաշտպան
մասնագետների
համագործակցությունը
համայնքային
մարզիչ
պատկանող
վերին
երբեւէ
դրանցից
վարկային
խոսքի
հնարավորինս
ստորագրել
սպը
կոչված
եկեղեցի
զարգացումը
բացել
դառնալու
բնորոշ
խաչատրյանը
մակարդակը
հաստատված
անհնար
մասնակիցները
անհայտ
փաշինյանին
հանգամանքը
աճի
հարաբերություններ
տվյալներով
##րը
##աւ
դի
խոսնակ
դասական
հիվանդանոց
սերը
կոտայքի
ամենից
ընդդեմ
փողոցի
հոդվածը
ազատվել
քանակը
ընդգծեց
բացման
ապրող
ունեք
անցկացնել
##ւած
պահի
ժողովրդավարական
օգնությամբ
օտարերկրյա
ներկայացուցիչներ
տարածքի
ընկել
բանակցությունների
գետի
մակարդակով
տրանսպորտի
անդրանիկ
հասկանալի
օրս
դպրոցը
գնահատման
հայտնաբերել
գիրք
իրականացված
ելույթ
մնաց
նք
բարոյական
աճել
նահանգի
##ւում
մոր
##վելու
շուկայում
տարբերակ
քաղաքացիները
արժեքը
գիշեր
հաղթել
նկատել
գտնվել
պահանջել
պատրաստել
բացառապես
կարեւորագույն
առաջիկայում
պալատի
դէմ
նվազագույն
դաշինքի
հիմնված
իրավիճակ
հետեւել
ութսունինը
պարզվել
ֆոտո
տարօրինակ
տղամարդու
եվրասիական
աշխատելու
ջուրը
իրավասության
պատերազմ
լիովին
վրացական
աղջիկ
քաղաքացիներին
խնդրել
##ություններ
##լա
տասնհինգին
կարծիքը
##ացնելու
վայրի
տասը
երեվան
ազդեցությունը
##սկի
անշուշտ
##իայի
տեղեկացրել
վառ
կազմի
կենդանիների
կողմերի
չկար
նախապես
պահանջները
տոկոսով
սիրիայում
գերագույն
##ղի
հեղինակը
ներդրումների
ձգտում
յոթանասունյոթ
ամերիկացի
մարմին
##քն
պայմաններ
հարությունյանի
սպասարկման
թողել
տասնյոթին
իրան
բժիշկ
վահան
հայտնվում
զուգահեռ
ձեւավորման
##ակը
գնահատել
հայր
##րում
տասնութին
վճարել
ասվում
ընտրություններում
ձեռքը
տասներկուսին
խորհրդարանում
պրոֆեսոր
հարավ
ավելորդ
համեմատ
նպաստում
բարձրաստիճան
ադրբեջանում
հազարավոր
հաղթանակ
նշանակության
փողոց
ֆրանսիական
##ամ
մանվել
դար
իրավիճակում
հաստատ
համահայկական
տղան
գլուխը
սահմանում
անցյալ
միավոր
ժամկետը
վերաբերվում
շարունակելու
ընդգրկված
հոգեկան
բանակը
պաշտոնատար
զրոին
կնոջը
հրավիրել
աղջկա
ձերբակալվել
բուն
մտադիր
պահ
խորը
կառուցել
նշան
##քով
մշակման
աշխատակիցները
տասնիննին
բնույթի
հակոբ
##մա
միջուկային
մայիս
չունենք
գյուղատնտեսական
պայմանների
նյութական
ասես
դերասան
սիրով
սեր
շահագործման
##րեց
ապրիլ
կդառնա
##վեք
ինչպիսիք
տղամարդը
յոթանասուներկու
ընդունեց
խաղը
##լը
տղա
ինքս
վաթսունյոթ
խաղերի
կազմված
ֆինանսների
վերահսկողության
բնագավառում
ղեկավարների
ասված
բիզնեսի
թողնել
հո
ժամկետում
տարածաշրջանի
ծանոթ
սկսեցին
իմանալ
թրամփի
հովիկ
հայրենիք
արժանացել
յին
կիրառել
պաշտոնապես
##անալ
ապրիլյան
լեզու
տարբերվում
յոթանասունութ
##աբար
ցանկալի
ընտանիքում
##երուն
մե
տեղակայված
որդու
բանկային
անմիջական
##լին
լինելը
անունից
գրանցման
արեց
վայրում
գործընթացում
եկամուտների
մարզ
փոփոխությունները
աշխատող
համաձայնագրի
անցկացրել
ական
էդուարդ
ժամանել
դոլարի
առողջական
հաջողության
համատեքստում
մայրաքաղաք
պրոֆեսիոնալ
խափանման
հոգին
ռուսաստան
հարկի
գինը
կգա
աստիճան
անուն
յոթերորդ
ոստիկանները
շահերի
առցանց
գործերը
ծնողների
առայժմ
իրականացրել
հասարակայնության
երիտասարդների
զու
բակո
դրամական
տեղեկություն
դուռը
տասնվեցին
ապրելու
##տա
իրավիճակների
բացառությամբ
հյուսիս
պատրաստված
եկեք
վաթսունչորս
մեկնարկել
##թյան
բնապահպանական
հնարավորությունը
##խի
փոփոխության
առհասարակ
կազմակերպությունը
սկիզբ
ետք
քսանին
նախագահն
հաստատելու
իշխող
երեսունին
ծնողները
նու
##եցի
շա
կազմակերպում
մանչեսթեր
ընտրվել
տի
հասցրել
մտել
գեղարքունիքի
վանաձորի
միջնակարգ
եկան
պետրոսյանի
##ավ
սրանք
բանակցային
հիմնադիր
կիրառման
ամբողջովին
գյումրիում
հնարավորությունները
լուսավոր
ութսուներկու
տղամարդիկ
րո
սահմանել
փաստաբան
ուշադիր
##ցման
բազմիցս
վտանգ
##դա
ութսունչորս
չեմպիոն
ժամանակն
ութսունյոթ
գրառում
հասանելի
պատասխանատվություն
ճանապարհի
հարցնում
դատավարության
ջրային
##նը
մաշկի
բառը
ներկայացնող
անցնել
տէր
փնտրում
պաշտոնից
ապագայի
անվանում
միջոցներով
իսրայելի
գնաց
ընթացքը
վազգեն
համալսարանում
առաջնային
##եանը
քսանչորսին
վաթսունվեց
փոխնախագահ
պատահական
կիրակի
սահմանին
շնորհակալ
միանշանակ
միքայել
ղա
գյումրու
պաշտպանական
##որդ
##օրէն
խաղ
չինաստանի
օրերի
գումարի
թեմի
փուլ
գաղափարը
##կին
առաքելական
գրանցված
ահ
րդ
ութսունվեց
քաղաքացին
##ացավ
ինքնակառավարման
հե
ավարտվել
բնույթ
վաթսուներեք
վաթսունմեկ
պատվիրակության
զոհ
կարողանա
տղամարդ
լրացումներ
պատերազմը
նոյն
գոտում
նախագիծ
հանրապետություն
պուտինը
արվում
երկկողմ
երկուսին
բնակիչների
իննին
խոսքերով
տեղադրված
պայմանագիրը
##անոց
ընտրություններ
բանից
արհեստական
երաժշտության
աին
ութսուներեք
դարձած
հրանտ
այցը
յոթանասունվեց
խուսափել
նամակ
բնակիչները
եր
խմբերի
մոսկվա
միջոցառման
դեպքեր
##րա
քրեակատարողական
մուտքի
քվեարկության
կետի
տեսանյութեր
սարգիս
բազում
տասնչորսին
պոակ
աչքերը
մետր
##երեն
բացարձակ
փակել
պահպանության
ավելացնել
սուրեն
զուտ
տարոն
աստիճանաբար
սպանել
ութսունմեկ
վաճառքի
օրերս
սեփականության
վայոց
հակ
##ուհի
զարմանալի
կորցրել
բացակայության
ընտանիք
բարեգործական
մարդն
չունեմ
սենյակ
միայնակ
ուսուցման
ծառայությունից
չափը
կանխարգելման
համալսարան
աստիճանի
##ոնը
կանոնները
կային
##թը
վահե
ավել
##ացի
զորքերի
նիստ
շաբաթվա
արաբական
##ացրել
հետազոտությունների
անոնց
աջակցել
յոթանասուներեք
հոդվածներ
փաստաթղթերը
գործին
վաթսուներկու
քիմիական
ծախսերը
հարեւան
հանդիսացող
դառնա
անգլերեն
հանձնել
շինարարական
հաղթանակի
օգտվել
գիտեք
ընդունման
զոհվել
ջերմ
ապագայում
կառուցման
յա
ընտրված
յոթանասունմեկ
##րին
##իան
լուծելու
դիրքորոշումը
հիմքում
##ոտ
վաթսունինը
տրվել
գիտեն
որդի
համայնքում
խախտում
խոր
տնային
անցկացնելու
հիվանդ
բացահայտել
լղ
բառերը
ֆիլմ
պաշտպանել
պարզվում
տվյալներ
իրենից
փոխադարձ
ընկեր
մասնակցության
ներկայացրած
աճ
պատ
կրել
մեղավոր
##եւ
որտեղից
շուկայի
պատգամավորների
տարածքների
վան
ձեռքի
առնչությամբ
նախքան
միգուցե
աստծուն
սոցիալ
յուրահատուկ
արված
ծախսերի
խաղալ
տոնական
սասնա
ազդում
լեզվով
համայնք
աջակցությամբ
ժողովուրդների
հաշվառման
##ալի
կողմէ
թանգարան
տասներեքին
պաշտոնակատար
ռեժիմի
ութին
##ձ
բնապահպանության
հարցն
նարեկ
յոթանասունինը
իրադարձությունների
կիրառվում
կայանալիք
որոշումներ
##ջի
պատասխանում
քսաներկուսին
գավառում
փուլի
հաստատվել
հաստատում
միտքը
պուտինի
վերականգնման
շրջաններում
եղանակով
մարտ
մանրամասներ
թանկ
մարզերում
ուսումնասիրել
օգտին
իշխանություններին
դիտել
սի
մարզպետ
ված
մեքենան
ակադեմիայի
##աս
այցով
դարձյալ
գիտնականները
խաչատրյանի
հանցագործության
արձանագրել
աշխարհին
ինչից
տանել
մոտենում
համակարգերի
ամառային
գործողության
##ութիւնները
լրագրող
մօտ
հասարակությունը
սովորում
աճում
սրբազան
առավելագույն
ֆակուլտետի
իրանական
եզրափակիչ
հարաբերություններում
##քների
հանդիպումներ
պատկերացնում
թիւն
կայացել
անվտանգ
գործակալություն
հանրությանը
##չը
բարձրացման
անցկացման
թանգարանի
վարչապետին
տպավորություն
կրկնակի
##ատ
բնակելի
երեւանյան
վեցին
##աւոր
պաշտպանի
##նեն
անհրաժեշտություն
մրցույթ
##կների
տասնմեկին
բանակ
նախատեսում
իրադարձություններ
առնել
ռեժիսոր
անցավ
ընկերների
կարապետյանի
ձեւ
պատրաստում
##արան
դպրոցների
##ցված
խանգարում
նախարարություն
հարազատ
կարդում
կանոն
##քին
տոնի
եվրամիության
գործն
գերմանական
տեսք
ադրբեջանին
ծրագրում
գյուղական
մեդիա
##ետ
ձեւը
ֆուտբոլային
ամենի
հաջող
շրջանառության
առանձնապես
իշխանություն
հան
մշակել
ձորի
մասնագետ
բանը
ամիսներին
հինգին
հրաժարական
առկայության
ջոն
օրենք
##ճ
գիտի
գնալու
ապհ
կայքը
դատախազության
դարձնելու
փոխանցել
գործընկերների
վերցնել
մնա
համաձայնության
կյանքին
թեկուզ
ժողովում
գործակալության
սբ
հքծ
հավաքել
օրվանից
իտալիայի
գործեր
դոնալդ
հրայր
շարքում
նախաձեռնության
ծառայել
ւմ
չոր
տեղեկությունների
տեղափոխել
մյուսը
անդամներին
նահանգների
մարմինները
ծայրահեղ
հարցրեց
##բի
սպառնում
քսանմեկին
##քում
քսաներեքին
զենքի
թերթի
##ությանը
լիլիթ
թուրքիա
երգի
կորոնավիրուսով
տեղեկություններով
օրենսդրությամբ
շարունակական
աշխատանքներին
արձանագրվել
իրավապահ
հավատարիմ
հավանական
գնով
ուղարկվել
փոխանցմամբ
տնօրենը
զանազան
հերոս
սարսափելի
վարում
նց
փաստինֆո
արի
հետեւից
դաժան
քանակությամբ
սեղանի
քսանհինգին
յոթին
շահերը
##րեն
տիրոջ
դեպքերը
հատվածը
##նող
##ուկ
էլեկտրական
մանկավարժական
նվազել
եվրոպայում
սպորտային
հավելյալ
ուշադրությունը
սմ
արդյունքը
հակառակորդի
կոչում
##մը
նկատեց
քննարկումների
երկարատեւ
երիտասարդության
բարձրացնել
որուն
համալիր
արժեքների
##ցող
ստորեւ
հունվար
հղել
պայքար
կայքի
հոդվածով
առնում
քաղաքից
նախագծերի
ցեղասպանությունը
երկրներից
գործերով
##տում
պատկերը
բանն
իրանը
դատի
ծառուկյան
առաջացել
հրամանատար
նպաստել
լույսի
կազմը
կոմիտեն
ամբիոնի
յետոյ
մտքի
տեխնոլոգիական
մասնագետները
վերադառնում
տխուր
հավաքականը
ասացի
գյումրի
կոշտ
բաժինը
ունենան
ակնկալում
##իի
բոլորիս
սահմանը
աստծու
ութերորդ
կառուցված
##փ
գործընթաց
մասնակցությունը
սառը
հակառակը
կոռուպցիոն
կայ
ակումբ
մանավանդ
տու
ներկայացվում
ընդդիմության
գլխավորած
երեխաներ
օրական
վերցնում
արտադրանքի
ընտրությունը
ներգրավված
ալիք
գիտենք
պատգամավորը
ձեռքով
երկուսը
ուշագրավ
##ոյանը
անվանումը
կունենան
##ոսի
վերադառնալ
հսկողության
սենյականոց
ոտքի
նախօրեին
այսքան
հավելեց
վերադարձել
##ցում
պայքարել
օդի
չլինի
##կներ
դաշնության
երկրները
կառավարությանը
անվանել
լիբանանի
ծրագրով
սպասել
անհրաժեշտությունը
հաջողվել
քսաներորդ
երկրներ
թվականը
պէս
ազգ
ահազանգ
պատկեր
շինարարության
սկսվեց
պահանջներին
էջմիածնի
ռա
իշխանական
շենք
հնարավորություններ
տո
մեղմ
լարված
հաց
հայրենի
ժառանգության
համաձայնագիրը
վայրը
առանցքային
խոսելով
ընտանիքին
անդամներ
եկող
էրդողանը
սովետական
##աբանական
գլխին
մասամբ
սիրտը
էներգետիկ
վայրերում
թիւ
ճանաչման
վճարման
տեսնելով
մարմնական
բանակում
մեքենայի
գոր
ժամկետով
ամսական
աջակցությունը
նրանով
տրամադրում
ծովի
աճը
##գը
ուրբաթ
սկզբին
առարկա
անցկացնում
զերծ
խուսափելու
արցախը
գտնվելու
պահանջը
անահիտ
մարզական
##քս
ակտերի
##ացնող
նյութի
պատճառները
բուժում
նույնը
դպրոցական
ֆուտբոլիստ
սկզբնական
ուսանողական
կօգնի
հատվածի
հեշտությամբ
կառավարությունն
շուրջը
կուսակցությունների
փառատոնի
ադրբեջանցի
կանգ
ապագան
դրամով
լիազորությունները
զինծառայողների
օրակարգում
ամուսնու
համացանցում
որպէսզի
նաիրա
ցանկը
վիճակագրական
տարեկանում
զարգացում
վերցրել
##ւել
կառավարություն
կանգնել
աննախադեպ
ենթարկվում
արագածոտնի
վար
հաղթահարել
##տիկ
զարգացած
զբաղեցնում
առանձնահատուկ
ներդրում
վերը
քայլերը
կազմակերպելու
ընտանիքների
կյանքն
ծառուկյանի
չափ
վերլուծություններ
հիշեցնում
շենքը
մերժել
քսանութին
ձեւավորված
ձեռնարկել
մահը
երգը
բրիտանիայի
րուն
առողջապահական
հանձնաժողով
սրա
նկատում
րբ
նայել
գործընթացին
բացատրել
##ցած
օգտագործելով
ընտրություն
քսանյոթին
բժշկի
ներկայացման
##էք
աբրահամյանը
առաջացած
անիմաստ
անձին
դերասանուհի
մնալու
բերվել
մասնակիցներին
սեյրան
մանուկյանը
օրոք
##ուր
իններորդ
տեղեկատվությունը
զբաղված
արվել
շնորհավորել
խելացի
ֆրանսիայում
կարգ
դաս
սահմանափակ
հեղափոխական
նույնն
էներգիայի
քսանիննին
կապը
ամենօրյա
տարել
տարիքի
հիմնադրամը
պանորամա
##ուս
որոշումների
անցնելու
խնդիրներին
##ավորման
մոտավորապես
զոհված
ստացավ
ծառայությունները
ամուլսարի
ընկերություն
սանկտ
պաշտոնի
ասի
կառուցվել
գլոբալ
##քներ
հաղորդագրության
քսանվեցին
երեւանը
դարում
բանկը
մատչելի
դոկտոր
իրականացումը
##ավորված
էդվարդ
գլխի
կատարյալ
անգլ
նկարիչ
նստել
ոստիկանություն
պե
ազնիվ
օգտագործումը
ակումբը
մայրաքաղաքի
սուտ
իրականության
սան
ծառուկյանը
էիք
օրենքների
բելառուսի
խորագրով
մըն
չունեցող
անսպասելի
աշխատողների
մերձավոր
քննարկումներ
հանցագործությունների
գործընկերության
էրեբունի
վարել
գիտե
անունները
տուր
շնորհավորում
##ագիր
վարդանյանը
կյանքից
վերաբերմունքը
ընթացող
մահացած
##րեք
ժողովը
անհասկանալի
ազգերի
հարձակման
անոնք
երկուսն
հրապարակային
հասցնել
##արի
ամենեւին
անհատ
չորսին
լոս
առավոտ
խոսքերը
երկրից
##սում
գրքում
նեղ
##ցը
##անալու
դահլիճում
հոկտեմբեր
հուսով
տվեք
փոխարինել
արձագանքել
հղիության
բնակվում
թյան
##սին
բացվել
արդէն
կրող
վաճառվում
պահը
պարտականությունները
մարտիրոսյանը
մխիթարյանը
ներկայացուցիչը
համարժեք
պողոսյանը
եղեք
աղբյուր
հազվադեպ
նախագծում
առաջադրված
##ացնի
գրավել
փաստաթուղթ
##ենի
ֆիլմում
երկուշաբթի
ահաբեկչական
անցկացվում
պահից
դատարկ
ալիեւի
եկեղեցական
ճանաչվել
նյութերը
քաղաքացիներ
##ացող
նուրբ
կանոնների
հազիվ
լուծումը
առկայությունը
հարուցված
խնամքի
դատավորի
մարգարյանը
տարածման
վաճառք
պաշտպանելու
որոշեց
օրենսդրության
դպրոցներում
սեպտեմբեր
մարտին
ուսումնասիրության
ընթացքի
հիշել
##ութիւններ
նշանակել
բժիշկները
հավելելով
օրերը
ժողովրդավարության
տարածքներում
մխիթար
աջակցում
այդտեղ
վտանգի
մեքենա
պահանջների
##զմի
վրաստան
զինծառայող
մանր
հրաժարվում
ալիեւը
վիգեն
հրավիրում
վարչապետն
ընդունելու
##պի
տեսնելու
քրիստոնեական
պաշտոնյաների
կետով
ծառայողական
երազում
հնչում
տոնը
ինքներդ
փուլը
առաջարկը
դաշտ
շտաբի
սկզբից
բաքվի
ռուսերեն
ժամանակներում
լուծումներ
իսպանիայի
##ութիւնն
միանգամայն
ծառայում
եկեղեցում
աշխատավարձի
ժա
պաշտպանում
##ցին
մհեր
կողմում
փաստաթղթեր
գործելու
տեսանելի
ատյանի
հարությունյան
մոտեցում
երեքին
մուտքը
ունեին
անօրինական
հասավ
պարզելու
հավաքական
արտահանման
##բան
տարածում
դիտում
ամենակարեւոր
##նե
բերեց
##կները
օսմանյան
մամլո
միլիարդ
վր
հաղթանակը
##եցնել
հովհաննիսյան
արեւելքում
##անքի
մեծամասնությունը
երեւույթ
միջոցառումները
արժեք
գործընկեր
խորհրդական
ռեսուրսների
բարենպաստ
մտնել
գյուղը
յուրաքանչյուրը
ռեալ
հանրաքվեի
օդային
ճշմարիտ
##նին
լրատվամիջոցների
երկրորդը
վերոնշյալ
##լու
օբյեկտիվ
ստիպում
պատճառներով
տարածվում
ծագում
մրցանակի
ավարտից
մշակույթ
ներկայացնելով
փոխվում
նո
ընդառաջ
կայացավ
ունեցան
հաղթող
աստուծոյ
կոմիտասի
ղեկավարները
հաստատությունների
թվի
աշակերտների
համակարգչային
##զը
բրիտանական
կարգավիճակ
ազատազրկման
քննարկվում
ցուցակում
քի
կազմակերպություն
հասարակ
վերականգնել
##ռի
##ցու
հռոմի
կորցնում
բացառվում
շախմատի
հետազոտության
համայնքը
կարեւորել
մեքենաների
համաժողովի
երգ
յու
տեսա
ճանաչված
բակում
պատվիրակությունը
համ
նախարարների
ղեկավարության
վարորդը
արեւի
չար
##կով
##տների
թափուր
շենքերի
որակավորման
վի
սիրիական
համայնքներում
հայեր
օրենսգրքում
էիր
##կայի
թումանյանի
սնունդ
տեղադրել
##անան
որդուն
ուսանողները
անհապաղ
ծաղիկ
խախտման
ողբերգական
հանրապետութեան
տեղեկությունները
եղանակ
լճի
փոխելու
քմ
հավանականությամբ
##ագրում
օգտագործվել
տիպի
արդյունաբերության
դրության
առաջնությունում
տասներորդ
##հի
թանկարժեք
սահմանային
անգլիայի
մէկը
լրացնել
փորձագետ
սիրել
ցանցի
##ղը
կի
վահագն
##նեմ
դաշտի
ցած
դեսպանը
##ցել
ֆեդերացիայի
հանում
ըն
հարություն
պատասխանատվությունը
փրկել
սահմանի
արտասահմանյան
միջոցը
գումարները
ցու
բացում
հենրիխ
կետը
համակարգող
որոշումները
եկեղեցւոյ
կենցաղային
ավարտվեց
սահմանվում
հայրենիքը
այդպիսին
տեգեր
հովհաննիսյանի
թատերական
ընտրում
պատիվ
եվրոպա
##ավորում
կայացրել
անդրադարձ
բխում
##էին
առաջացման
աստուած
գործընթացների
##գա
հայտարարությամբ
առաջարկ
կապույտ
տրամադրելու
թեմա
##բար
աղբյուրը
##սն
կառույցի
այդպիսով
բանակցությունները
անվտանգությունը
##րած
գոհ
բնակվող
իլհամ
##ողը
ամյա
խորհրդարանը
չեմպիոնների
ընդունելի
քննություն
##թեան
փայլուն
##ցնել
նոյեմբեր
##ւի
հրադադարի
հետապնդում
տանող
յուրի
ոքի
դեպքը
հանդիսավոր
##րան
հանգամանքները
ճանաչելու
շատերն
թվային
ուժով
ձեռքերը
ժամանած
##ցիա
մշակում
բացակայում
տանն
որակյալ
հաջողությամբ
դատավորների
կրակի
հպարտ
ժամանակով
քաղաքներում
ենթակառուցվածքների
##կո
մեղադրում
մարդկության
փոխանցում
լինենք
իրա
լրագրողներին
ներքաղաքական
##վե
գնալով
շատերի
մամուլում
հանդերձ
գիտակցում
տրամադրման
գան
մարդասիրական
աշակերտները
պահպանում
միջով
հակոբյանի
ամուսինը
փաստի
լիազորությունների
դեմքը
հետաքրքրում
գաա
ներողություն
գտնելու
փոխարենը
հինգշաբթի
ոլորտը
շտապ
փոխվարչապետ
զբոսաշրջության
այլընտրանքային
միությունը
պբ
եզակի
##ծում
հետեւանքները
հոդվածում
զարգանում
թա
թավշյա
բաքվում
հարցերում
ճնշում
ցուցաբերել
հաշմանդամություն
կապիտալ
կոպիտ
ապահովագրական
ձեւավորվել
նախարարին
հունիս
##տան
անցկացվել
ադրբեջան
##տին
դեկտեմբեր
մեկնաբանել
տրամադրված
նիստերի
սկզբանե
ստեղծվում
անձնակազմի
ամենաբարձր
նովոստի
նախաձեռնությունը
թափանցիկ
եխխվ
ուղարկում
արդյունաբերական
ներդրումներ
##քները
ինստիտուտ
խաղացել
ազդել
մինասյանը
դաշնային
անընդունելի
ծրագրին
հանգեցնում
դանդաղ
երկրին
ներդրման
օգոստոս
մտավոր
հղում
դեղին
շարժումը
ստորին
փորձեք
գալուստ
ուղին
տեսչական
բանաստեղծ
հաջողություն
##ցնում
##քերը
շնորհավորական
##ցիների
քննարկելու
գծում
հաղորդել
պահպանելու
բջջային
զբաղվող
ճգնաժամի
հետախուզական
տհաճ
հիսուս
արտադրական
սահմանները
ամռանը
դիմումը
վթարի
վաճառել
եղան
որքանով
հրապարակված
արարողությունը
հաղթեց
խոստացել
էներգետիկայի
չորեքշաբթի
քվեարկել
հողը
##դան
թագավորության
##ժի
աթոռ
##յն
հայերին
ժողովուրդն
կրտսեր
մրցանակ
##շը
ակտիվորեն
գի
ճշգրիտ
սկիզբը
ափին
ընկերներ
հանդիպումների
վիճակ
ընդունելության
նում
տեղեկացրեց
ռեժիմը
քաղցկեղի
թեկնածուն
հիմնարար
բարձրացնում
տար
վճարում
նորք
բարգավաճ
ուղերձ
որակը
բուռն
բացահայտվել
##ցիները
##ակից
միջոցառմանը
երկուսի
նշանավոր
վերաբերմունք
գործիչների
իրանում
զոր
հավանականությունը
մշակույթը
իրադարձությունները
բողոքը
գերմանիայում
հուլիս
ճնշման
ասուլիսի
արժեքի
բանկ
շեշտեց
հետեւանքների
թատրոնում
երիտասարդները
ցավ
աղջիկների
հնագույն
վնասակար
հագեցած
հակոբյան
հանրապետությունը
լուռ
փոխնախարար
հայի
պատվավոր
կամաց
լաւ
վահրամ
վստահության
շրջանը
հարձակվող
ծրագրային
պաշտոն
երկխոսության
դասի
հետեւանք
արժե
##նելու
ապրիլին
պատգամավորի
դատախազի
չինական
հեռացել
առաջարկվում
հետք
վոր
զարգացնել
սկսելու
բառերով
##ցվում
քարտուղարի
լուսանկարը
այդուհանդերձ
ակցիա
տիրող
հանդիպումից
որոշումն
կատարվող
ստորաբաժանումների
քայլերի
ծա
պահպանվել
նավթի
հասկացա
##ացան
##եղ
նյութը
հաշվետու
կարեւորում
աղջկան
հաճախակի
քկհ
լրահոս
տիրապետում
արդյունավետության
դիտարկում
խնդրին
դրանում
կիսապաշտպան
թեժ
ետմ
հանգստի
ֆրանսիացի
##դայի
գաղտնիք
միջոցառում
կազմակերպվել
հիվանդների
ըլլայ
ընտրություններից
վարկի
երթեւեկության
մեզի
էրդողանի
համարյա
վասն
##աք
բանակցություններ
իրականություն
կարգին
ավելացել
որքա
##եաց
կոնգրեսի
ջանքերը
կերպարը
հարթակ
պարտավորությունների
բնականոն
պատերազմում
ամիսների
կալանքի
հիմքով
հարյուրավոր
մոտակայքում
պատգամավորները
թեկնածուների
մութ
ընդունելով
բարձրանում
իմաստը
երկարաժամկետ
խախտել
քաղաքների
ինչով
նվեր
գրիգորյան
կայսրության
բնակարանը
տրամաբանական
մասնակի
դէպի
##ունի
հիշատակին
վարչությունից
յան
հրատապ
խաղաղություն
խաչատրյան
սեւան
պարզվեց
գների
հանցավոր
թյուն
##անքը
գրքեր
երեքշաբթի
##արանի
տվեցին
կորցրած
բարելավման
գնահատական
թեմայի
ցանկում
հասցեին
թվականների
հաղորդագրություն
լավն
մկրտչյանը
նվիրել
գները
դիմումի
կեսը
կարգապահական
կինն
հարցազրույց
ստեփան
##մանը
արեւելք
ամենամյա
անելով
ուժեր
անակնկալ
փաստաբանների
##ացրեց
ները
կաշառք
իտալիայում
չուներ
հեռանում
մաշտոցի
տերը
պատմեց
հիվանդանոցում
սերտ
շենքում
վերանորոգման
ասելու
գնդապետ
##տային
հս
ծանոթանալ
ծառայողների
տոն
անցկացվող
##դում
էդմոն
կինոյի
արդի
ժառանգություն
հարմարավետ
ֆինանսավորման
եղբայր
յի
առել
իրավասու
հաստատման
նույնքան
քոչարյանին
բերած
ոստիկանների
պետրոս
էկոնոմիկայի
##վան
ներառված
ինչին
սերնդի
զինվորի
դադարեցնել
հասցե
##ակների
գործողություն
բողոք
սիմոնյանը
խաչի
զարուհի
թեկնածուի
կեսին
անցնող
ջերմաստիճանը
խոստանում
կարեւորությունը
հավաքվել
պարունակող
վարիչ
##որի
մոտեցումը
կանոնավոր
փարիզում
արգելված
բժիշկների
հորդորում
ինքնին
լքել
կնքված
մեկնում
ընկերական
ներում
հարկադիր
վերլուծական
զրուցել
ձեւավորել
հֆֆ
ուտում
ուսուցիչ
մեծագույն
նորանշանակ
հետեւողական
կեանքի
##ուհին
բյուջետային
հետաքրքրություն
նկատվում
պահանջ
##րո
փարիզի
փորձաքննության
բե
կուսակցություն
խնդիրներից
փաստեր
տնտեսությունը
հասարակությանը
հատված
ընդունվում
կե
գոլ
ղեկավարությունը
դրսեւորում
##քային
համապարփակ
ապահով
զայն
հասկանալու
տեղեկացրին
դատախազ
գեւորգյանը
##թում
եղբայրը
մասնակցի
վո
նպատակին
հրամանով
երաժշտություն
ցեղասպանութեան
ցերեկը
աջակցելու
գույքը
ձմեռային
կազմակերպությունները
կտոր
տարածքները
ներկայացվող
##ավան
խաղեր
ծավալը
##դին
լուսանկարները
տարիքում
մահ
ուտել
ռիսկի
տասնութի
համընդհանուր
խմբագիր
##արանում
հօ
##ապէս
տեխնիկայի
րին
ոռոգման
դարձան
հանդիպումները
իտալական
դիմելու
թանգարանում
ասացին
սահմանամերձ
արդարության
դատարանն
հայտարարություններ
հաղորդմամբ
օգտագործելու
օրգանիզմի
արարողությանը
անցկացված
արեւելքի
զգալիորեն
հրաժարականի
օգուտ
հնարավորությունների
տեղն
վն
երգչուհի
ֆիլմերի
##եւը
բույսերի
գազ
դառնալով
ստեփանակերտի
կանխելու
չափի
մարզպետի
մարիա
##ֆի
գործարանի
բարեկամ
վաստակավոր
փոփոխությունը
##ալով
նորա
ելույթը
արտգործնախարար
գրողների
մահից
մասնակցություն
ավարտվում
եղբոր
պատերազմից
գոյության
##լան
գալով
քայլի
իրաքի
##ագետ
##եցնում
օրում
զոհրաբ
հեռավորության
նպատակների
ականատես
գործիք
պահանջով
անմեղ
պատասխանելով
գիշերային
ցուցակը
կո
բխող
տասնիններորդ
տղայի
##ինի
ղազախստանի
ձեռքին
կոնվենցիայի
##սա
իմաստ
պետը
եթերում
ակադեմիական
վերջը
շքեղ
կմնա
ուրիշի
գրականություն
հեղափոխությունը
##երէն
հարգանքի
իրանց
խոսեց
գնի
զինվորների
կամավոր
ակումբում
վանաձոր
կուսակցական
##ատուն
բացառում
ասա
մեկտեղ
##աձեւ
ներկայացուցիչներին
մեդալ
կայք
հիմնադրվել
բացահայտ
խոսքում
հող
նյութ
պատրաստման
ծանոթացել
հավելել
եղանակը
երկիրն
##օրյա
կրթությունը
սեւանա
##կն
##յուն
բառ
կարգավորող
սննդամթերքի
նախարարն
գավաթի
դիրքը
հրավիրված
մայիսին
փաստաթղթի
կառավարական
հեղինակի
րաֆֆի
ոճի
ամրապնդման
տնտեսություն
համեմատաբար
բաղդասարյանը
ցա
տենց
մարիամ
ջրով
հանրությունը
համալսարանը
քաղաքագետ
##վոր
գործունեությանը
հանգեցնել
մոսկվան
վարակի
ընկավ
##նեք
էլեկտրաէներգիայի
դեմքի
անհիմն
միջավայրում
կողմն
կլոր
մեծի
##ելը
կետ
նամակը
ընտրելու
լրացում
համեղ
բկ
ինստիտուտը
բաղրամյան
վրաստանը
վնասվածք
ռուսաստանից
նյարդային
առաջընթաց
միտված
##թիւն
##ստական
կապում
խմել
կառավարում
##ասեր
խմելու
անդամի
միջոցառումը
ուսման
պայմանագրով
սասուն
նախագահների
հրապարակվել
բռնել
կկայանա
դրսում
արվեստը
պահանջվում
հիվանդություն
բանկերի
սահմանների
քրիստոս
ֆուտբոլ
բռնություն
##իզմի
լով
հիմքը
բժիշկը
սենյակում
##կային
թատրոն
ամենակարեւորը
քանակի
աբովյան
հեռավոր
առանձնահատկությունները
լավը
բնակչությունը
անգլիական
հաղորդման
աշ
ուրիշների
հղի
խոսքն
բացակայությունը
կետում
փափուկ
որտե
գլխաւոր
կիրառումը
գերազանցում
մարմիններին
մրցաշարի
լոնդոնի
քննությունը
անդրադարձավ
առընթեր
սեւանի
##ումների
շահագրգիռ
գործնականում
##թյամբ
աշխատավարձը
տնից
թշնամու
##ակում
##յթ
նվազում
վտանգը
սեպտեմբերին
##բա
պատկերացնել
բարեւ
հնարավորության
ընկերները
փորձագիտական
ընդգծելով
զինվոր
մանրամասները
պար
փետրվար
##եցաւ
ուղղել
ներկայացուցչի
ընտրողների
##կել
հեղինակային
դասարան
դասարանի
ցուցանիշը
սկզբունքները
վստահություն
հայրենական
արձակել
ցավը
նշանակալի
գրավիչ
##եւի
##գո
միացել
արդյունքի
ֆրանսիա
հիվանդությունը
ռուսաստանին
ենթարկելու
մայրաքաղաքում
համազգային
օժտված
սիրուն
նախընտրում
տեսեք
րով
անչափ
բախվել
ազատել
դին
ահաբեկչության
մտավ
հանցագործություն
արած
խորհուրդներ
անենք
##ծել
##ինը
ապացուցել
մեծապես
փա
դեկտեմբերին
քրիստոնյա
կանխել
կաթողիկոսի
ժամանակաշրջանում
բարեկամական
տեսակների
փրկարարական
դեմոկրատական
միեդ
պատկերված
անցյալի
հայտնելով
մնացականյանը
թաքնված
ծրագիրն
հոգ
##ակները
նշանակությունը
երգում
հասցնում
մարգարյանի
##ցիան
թիմ
եզրակացության
գույնի
դրեց
աղքատ
արդյունքներով
քաղաքապետը
քննարկումը
օնլայն
թողնելով
թուրքիոյ
ավտոմեքենան
կիրառում
չափից
միտք
ձեւավորվում
ճա
ղեկավարում
##մին
իրավիճակին
միութեան
էք
##ուեցաւ
բնակության
կարգավիճակի
առաքելությունը
միջավայր
նշանակված
տուրում
հավաքում
քը
սկզբունքով
իշխան
բյուջեն
նակ
##բեր
տեսակը
ճշմարտությունը
միջնորդությունը
բառեր
հաճախորդների
սկզբունքների
հակված
##գիր
##ցիայի
այլոց
հասան
գրավում
ֆոնին
գումարներ
կարեւորը
ժողով
վարույթ
մաղթում
##ութիւններու
թիվն
բաբայանը
բնակարանի
հայրապետյանը
տեղից
գոտու
էժան
նպատակային
մարզպետարանի
իւր
հետաքրքրված
մեղադրել
##քեր
մակնիշի
դժգոհ
խմբում
ցանկությունը
կնքել
շարժվում
ուսանող
բուժումը
միս
փաստաթուղթը
տոկոսի
կատարեց
ստեղծումը
աբրահամյանի
մյուսները
մտնելու
աղբյուրի
հասկացել
գիտելիքների
հետեւյալն
վերաբերմունքի
##ատի
տաճարի
համալիրի
ինքնությունը
դիրքերը
հասած
հասցնելու
տուրք
հայության
միհրան
տասներկուերորդ
ներկայ
փորձելով
կրկնում
նկարում
հաջորդող
##տներ
անտարբեր
##տո
օպերայի
ուսուցիչների
##յու
փոխում
հավանություն
##ալու
կենսական
հարված
պաշարների
ըսաւ
խախտումների
պայծառ
սահակյանի
քայլում
ծնողներին
ձայների
ավետիսյանը
առաջարկներ
առաջացնել
ուժերին
քաղցր
##ցվել
օրակարգի
ավ
պի
տեսավ
գործունեությամբ
վերջիններս
առաջինն
ոգին
ծագման
րում
միջպետական
##վենք
խոսելու
նչն
պետությանը
սեղանին
ինքդ
գերազանց
ամիսը
մեզանից
պահպանվում
ճակատագիրը
դստեր
քաղաքապետարանը
մարմնին
սաուդյան
գույնը
մեկնարկային
նախարարությունում
աչքերի
աչքերով
հարեւանությամբ
գործողությունը
##տեր
հումանիտար
հանրակրթական
անցումային
երգիչ
մազերը
ժամկետի
արդյունքներ
արժեքները
փոխանակման
թվական
##ողի
կառուցելու
հայացք
ունեցաւ
##րդ
ակցիայի
##յց
պետականության
միություն
գծի
ախր
ժան
հայտարարությունները
կառուցվածքային
մասնագետներ
կարողանան
հետազոտական
բաժանմունքի
զգալ
կառավարությունում
անկասկած
հաստատեց
պատգամավորներ
ներկայացել
գրքերի
քննարկմանը
յուր
ամրագրված
օգնական
ասոցիացիայի
կատարումը
կատեգորիա
ջանքեր
բովանդակությունը
դնելու
տտ
երեսունմեկին
տեւական
մթնոլորտ
բաժակ
պաշտպանություն
հակակոռուպցիոն
բացահայտում
լեռան
ընդունումը
տուժած
պնդել
արեւային
մեսրոպ
գնումների
անուշ
ուղղություններով
հեռանալ
տեղեկությունը
բառի
երգեր
մարզերի
նախագծով
օրից
ապահովված
գայանե
աշխարհագրական
վերապատրաստման
տարբերությունը
կապեր
գրանցել
լույսը
##ցնեն
նկարել
ունես
հետազոտություն
հեղափոխություն
թագավորի
նպատակներով
դաշինքը
օրվան
տասնմեկերորդ
ռեալի
զրոի
կարիքը
աբովյանի
հարկում
փաստաբանը
օբյեկտների
գոտի
հիշատակի
կլինիկական
սարքավորումների
##թա
վարձով
հրաչյա
ուղերձը
անունն
այգու
պարզաբանում
##պես
ոլորտների
բուսական
անձրեւ
ծռեր
նալբանդյանը
դաշտը
առեւտուր
քսանմեկերորդ
հասմիկ
##իլ
արձանագրված
գյումրիի
աշխատավարձ
մոտակա
կենսաթոշակային
հրապարակման
մարդկանցից
սովորելու
տարրական
գերմանացի
միջնադարյան
միավորում
որոնցով
ներկայում
գիտեր
մեկնաբանություն
մրցույթին
վիկտոր
տարածքներ
նստում
փնտրել
ալեն
##կու
դռները
##ուին
մյուսների
մշակված
նշանի
շարմազանովը
գալա
ազատությունը
շարունակեց
բժշկության
մամուլը
ձեւի
հայրս
կառուցում
կյանքով
մաշկը
ուսումնասիրում
թուրքիային
վնասի
այցելում
##րով
նկարը
արդիական
##լյան
կապերը
ստանալով
մեծանում
կայացման
հայտնաբերված
հիմքերը
բարակ
միրզոյանը
սկզբունքը
մերժում
##արանը
ձեռքբերման
շարժում
փորձագետների
վերածվել
արդյունավետությունը
դատախազությունը
արտահայտել
##աբանության
տիեզերական
շահ
այդմ
դատավորը
նրանում
շարքային
քկ
ձեւավորում
առաջարկվող
##ծվել
կորած
պետրոսյան
հեղափոխությունից
հաստատության
պատի
ակտի
հունաստանի
##ցիոն
##ռում
##ւոր
կըհ
թեպետ
հուշարձանների
ելույթում
ստանձնել
համաձայնագիր
գիտություն
կովկասի
ոսկու
պատճառն
մատուցել
քրդական
##իչ
գետնին
##գեն
ստուգման
ղազարյանը
տարածվել
##չին
նշանակելու
##աբան
##ենը
պատմութեան
աշխատակից
նկարահանվել
վճռական
ուսանողներին
##ակներ
համակարգային
##րվի
թանգարանը
հետեւանքներ
նախաքննության
հաջողություններ
օգտվում
լիազորված
համոզմամբ
##նգ
ղեկավարին
դիտարկել
հայտարարվել
##նան
խաչ
լուրը
ստեղծած
##ացվել
վարկերի
հարվածել
արտահայտում
մովսես
բողոքում
դասեր
համագործակցություն
ամսին
կարողանանք
կենսաբանական
օգնությունը
ավարտը
վենետիկի
##տով
հոսում
քննարկումները
կաթողիկոս
օգնելու
հունական
կամքի
ընդդիմությունը
գիտնականների
վայելում
##ոսը
##ճի
հողերի
միջադեպի
գործակալությունը
ամենն
լրատվության
անդրադառնում
լուսինե
սեռի
##ցեն
ընդհակառակը
ստեփանակերտ
դեսպանի
երաժշտությունը
##ագիտական
այսպէս
խնդրանքով
բացվում
բարձրացնելու
##գրի
ծեծի
բարսելոնայի
կառուցվածքը
##ցեք
կազմակերպություններ
հնա
պայմանագրային
##ոյանի
ավելացնում
համեստ
##րված
միպ
համարվող
յուրօրինակ
չինաստանում
աշխատանքով
սիրված
բացատրում
պայքարելու
համոզել
չէինք
աշխատանքին
րոպեին
##րեր
հաջողվում
թատրոնը
հայազգի
չգիտի
դը
կօգնեն
ձեռնարկությունների
ընդգրկում
պաշտպանությունը
ստիպել
բյուջե
իրավունքով
ստեղծագործության
բնակիչներին
իրականացմանը
դիտումներ
սպանվել
հակառակորդը
համարվել
կտան
աղբյուրների
իրականությանը
փառատոնը
թորոսյանը
##պը
շահերից
բռնի
որոշելու
մասնաճյուղի
ենթարկված
ընդունած
լրագրողի
վերայ
խաղողի
հիվանդի
ջա
հայտնեցին
գալիք
նվաճել
գին
համաձայնություն
##ումի
##թին
արժեքավոր
տղաները
գաղափարական
որոնցում
երեքը
աղջիկները
առաջացրել
էջմիածին
արձագանքը
արգելվում
պահանջի
փախստականների
զբաղվելու
աշխատանքներն
համապատասխանաբար
տարիքային
##նես
դմիտրի
##ոյան
վնասվածքներ
ջանքերով
##յլ
ուղղակիորեն
##նենք
խորհրդարան
տեսնենք
բաժանում
##ակով
հավաքված
խոստովանել
##թյուն
պարի
անկախությունը
մանուկ
##րեմ
մասնագիտացված
երիտասարդը
##ցվի
ճարտարապետական
ունենանք
ուղեղի
մրցակցության
սին
քաջ
##եցինք
##ուհու
համագործակցել
ներդրումը
համարը
արգելել
թագավորական
մտքեր
պատանի
ներմուծման
ֆրանսիան
##տական
ամիսներ
խմբ
այստեղից
իշխանությունն
բանավոր
առաքելության
դեղերի
պատասխանները
ոստիկանական
արձագանքեց
հաշվետվություն
բարեկամության
կառուցողական
հրաժարականը
գեղեցկության
տիմ
##ծի
արեւմուտք
ծովային
##ողների
վերջիններիս
##ագրի
##քերի
գիտելիքներ
վերացնել
դատարանների
արձագանք
չգիտես
գույք
վերլուծության
հայտնվեց
նախարարությանը
անցնի
որքանո
դրամը
վստահությունը
ավան
կառավարությանն
ցանկության
տարածած
հարցազրույցում
վարչությունում
գինու
նիկոլայ
լուր
ապրանքի
նորին
սահմանվել
##բանական
գոռ
իրականությունը
հոդվածների
##ումն
փո
հոկտեմբերին
շուկան
ողջունում
օհանյանը
##առ
ծառայողները
աշխարհաքաղաքական
պապը
բաքուն
արդ
հանգստյան
ցանկացել
ժամերին
արարատյան
տաղանդավոր
գավառի
ավտոմեքենաների
մտքերը
հերքում
խմբային
նկատելի
գե
ամ
ազատելու
ամուսնացած
բրոնզե
փառք
փորձառու
հակասում
ղարաբաղը
ոճով
պաշտպանը
մին
թարմացված
միջոցի
ագրեսիվ
արփինե
տեսական
սովորողների
իրացման
մոռացել
##ումներ
փողոցների
գործիչներ
ավտոմեքենայի
կառույց
այլապես
պրն
զբաղեցրել
գրառումը
աստվածային
կամքը
վարկ
տղաների
արտադրություն
արտահայտված
վերադառնալու
արեւմուտքի
հիմնադրման
հասնի
ինտերնետ
աշխատանքն
վերացման
ժամանակների
այլընտրանք
դարձրել
##տել
կիրառելու
բանաձեւը
գիտակցության
կիրառվել
ցավալի
տեղին
հայտարարությանը
կրակ
գունավոր
քարե
թույլտվություն
##որը
հիվանդություններ
##յակ
էությունը
վիրավորվել
##ցնի
ազատագրական
մասնակցող
կարողացավ
հասակում
իշխանությանը
դատապարտված
հարթ
ներքեւ
հայտնված
հագուստի
սկսեցի
վերադարձնել
##ացնեն
համակարգին
ժիրայր
զա
##զա
ընդգծում
ընկերությունները
ասէ
լեհաստանի
հատվածներում
որոշվում
արմատական
պարգեւատրվել
##շեն
##մբ
կարիքների
##կեր
ամանորյա
դադարում
դեսպանատան
սրահում
միւս
դասընթացներ
դռան
նպաստ
կայունության
հասցեում
տառապում
եզրակացություն
դադարեցնելու
գյուղից
գրի
գցել
ցի
կրելու
գրասենյակ
հայտարարված
սեն
խորհրդակցություն
ֆուտբոլիստը
ընթացք
կեր
հացի
քին
##ուսի
##ագրեր
խնդիրներն
նախապատրաստական
##շում
պարտքը
ընտանիքներին
գրելու
գործընթացները
սպասարկում
ռիա
##ցնող
ճարտարապետության
այգում
նախագծեր
տեսանյութը
պահվում
վարձակալության
մխիթարյանի
սահման
##կման
աշխատակիցներին
ձերբակալել
ռուսաստանն
կարիերան
ապրած
շրջանային
կկարողանա
##ագրվել
աշնանը
քաշային
մեծացել
կունենանք
շարքը
հազ
##ացիայի
զինծառայողի
##երս
##ոյն
պատիժը
ձայնով
սփիւռքի
ցուրտ
##ուկի
վերջնականապես
ֆոնդի
կապանի
բովանդակությամբ
բացումը
քար
սեղան
մյուսի
լարվածության
վերանորոգված
երեւանից
վայրկյան
տեղումների
տուրի
օգտվելու
ղեկավարն
երեկո
##ւն
մմ
##ատների
վալերի
դավթյանը
տեսակետը
պարտավորությունները
զրույցի
ցուցահանդեսը
ձմռանը
հիմքեր
մուգ
ստորագրված
շուկա
ստեղծագործությունները
ոտքերը
մարուքյանը
տանք
սե
##ծված
այնտեղից
առաջնորդը
ուժային
մասնագիտությամբ
կարգավիճակը
կստանա
հղումը
հաջորդը
հագուստ
ձեռնտու
##ագույն
նոյեմբերին
զույգ
փոփ
խախտումներ
առարկայի
անտառային
կասկած
##ագիտության
կաթողիկոսը
հաճույք
բաքու
անվերջ
նախագծին
հավատալ
տասնիննի
պատմամշակութային
մտածելու
##խը
արտահայտվում
##ցրել
յուրաքանչյուրի
միացեալ
գրասենյակը
ստուգել
դնելով
խոցելի
##փի
պատրաստելու
գրողի
նորընտիր
պողոտայում
սպառնալիք
օրաթերթ
##եցրել
արտիստ
ժամանակավորապես
գաղափար
ծաղիկներ
օրաթերթը
առաջնությունը
տոննա
##ավորել
ենթադրել
պրեմիեր
համագործակցում
ներկայությամբ
դեմքին
ապրանքներ
դիրքորոշում
փոխհատուցում
գինի
սու
տրամադրվում
գյուղերի
կադրային
##ացվում
ցուցահանդես
շուշիի
չափերի
ձեռնպահ
խփել
տարով
օրինակը
վրաց
զատ
անսովոր
պաշտոնեական
##ղում
կարողությունների
հանրահայտ
կասկածելի
կասկածի
ռազմավարության
ընկերներին
##արը
տասնվեցի
ազգը
համանախագահների
առավելագույնը
լայնածավալ
հասուն
թշնամին
երեկվա
թագավորը
գիտես
բիզնեսը
կանգնում
տուժել
վերահսկողություն
կայացվել
##ցան
##րե
քահանա
համաձայնությամբ
ապահովումը
մանուկյանի
դատապարտել
##մար
հաջողվեց
դրվել
##րական
դասախոս
հատկանշական
ղեկավարել
զարգացնելու
ծառի
մելիք
##աշեն
##րման
##ցրեց
ազատվելու
էտ
ամուսնության
լեզուների
աստիճանը
փարիզ
կգան
պոտենցիալ
հրդեհի
շրջապատի
##ութ
մասնագետի
անընդմեջ
պատկերացում
վիրավոր
վիդեո
գտած
ճգնաժամային
երկրաշարժի
կարծիքի
լիգա
զոհրաբյանը
գերմանիա
խաղերը
ուկրաինայում
ջանք
ռեկտոր
գնման
յատուկ
վերականգնելու
խաղից
##վեմ
դաստիարակության
բացարձակապես
ընկերոջ
հի
հնդկաստանի
կնպաստի
##սոն
հանձնարարել
դո
##խել
##կված
դերի
տասնյոթի
հուշում
հարազատների
հերոսների
նոյնիսկ
վերացնելու
կազմակերպվում
դատախազը
կոչվող
տարածքից
ճարտարապետ
տարատեսակ
մեկնարկը
իդեալական
կարդացել
ուսուցչի
կտրել
օրգանական
իրականացրած
իմաստուն
##պա
զգույշ
ապահովության
սիրտ
գիտահետազոտական
հեռացնել
գիտելիքները
զորքերը
ցաւ
քնած
կարինե
կողմին
տեսակետից
փոխանցման
թիմին
կոմիտե
հիշողության
դիրք
պլան
պայմաններով
եգիպտոսի
գործարքի
անծանոթ
բացվեց
ներկայացումը
վարդանյանի
գրվել
փոստով
լաց
հիմնարկի
##կյան
կարապետյան
ինտենսիվ
սահմանադրությամբ
ծիրանի
ուկր
մայոր
##թիւնը
կանացի
զբաղեցնելու
փողոցներում
հոգով
ձեւաչափով
ընտրեք
կշարունակի
այնպիսին
գրած
օրակարգ
չափերով
ռոմանտիկ
անեն
հաստատություններում
պայմանական
անդամներից
էդգար
համարձակ
##սեր
գետը
արձանագրում
ճապոնիայի
##կած
լրագրողները
զգացում
հերոսի
հիմնախնդրի
ներկայությունը
խոշորագույն
հրաժեշտ
մակարդակում
օրենսգրքով
##եսի
##րոն
ազդեցիկ
ղարաբաղում
ադրբեջանն
զոհեր
կայանում
հռոմեական
պատժի
տասնհինգի
##զմը
թովմասյանի
ծածկված
թեկնածությունը
սերունդ
գարնանը
զանգահարել
մեզնից
դուստրը
հրդեհ
ծրագրերին
հակամարտությունը
իրավիճակներում
##արար
ասպարեզում
հորը
շեշտել
դրվում
քարոզչական
հիշեք
յաս
զբաղեցրած
սերն
ուկրաինական
##քից
ախ
բաժանվում
թեստ
անկում
լուրերը
ստանալուց
գրքերը
վրայով
կեանքը
հաշիվը
ընդարձակ
##կվել
նահանգում
ամենուր
##յաց
թողած
տուրիստական
քանիսը
##տե
##րես
աղ
ընթերցմամբ
կատարելով
ալեքսանյանը
իշխանություններն
պաշտպանված
ընդդիմություն
հաշիվ
գեորգի
անխուսափելի
հնարավո
մասնագիտության
լցված
ուղեկցությամբ
մերկ
##ողական
առաջարկություններ
երկնքի
առաջարկեց
սահմաններից
հանգամանքների
քիմ
հրաշք
իրավունքից
բնակարանային
պատերազմական
դարձնելով
ստուգում
հանձնելու
ընկերությանը
կառուցվածքի
խաղին
գետ
ծով
սեփականություն
լիակատար
օրենքները
##չում
կրթահամալիրի
բաժանել
մադրիդի
գնդի
տոնոյանը
երիտասարդներին
շտապում
իրավիճակից
##րվում
մաքրման
վանքի
տեսության
##րվել
խոսքեր
վերադարձի
զբոսաշրջային
##րվեն
իս
գերմանիան
աահ
պողոսյանի
մթնոլորտը
##շտ
յիսուս
պատահել
կորեայի
##որդի
##յր
կրնայ
հիմնավոր
մազերի
մրցույթը
անուններ
մշակվել
գնելու
հայացքից
տեսքը
անթույլատրելի
##ատու
էնքան
##լով
երվանդ
տարածումը
երեսունի
ոտքերի
մաքրել
անորոշ
առարկաների
արեւմտեան
վարկանիշ
տարավ
քարոզարշավի
հեղինակավոր
պատժամիջոցների
արտերկրում
արտահայտությունը
ստացվեց
տեխնիկա
քաղաքաշինության
ինստիտուտում
կասկածում
##զմ
իրավապաշտպան
անսահման
շփվել
կարիերայի
կրակել
հարձակում
լրատվամիջոցները
ողջունելով
փրկարար
ցուցմունք
մոդել
##յս
կստանան
փորձագետները
անփոփոխ
գաղափարի
պատվիրակությանը
մրցաշրջանում
պատրիարք
ցեղասպանություն
նորագույն
առօրյա
միլիոնավոր
շատերին
ստանդարտ
##ումները
առաջադրել
գրավի
հարկանի
համերգ
քպ
բավականաչափ
շան
առարկան
հարձակվել
հրշեջ
կիսում
հիշատակը
ընդլայնված
ասեց
հար
ոսկի
ստ
բովանդակության
ահռելի
խոսվում
##տները
կանչել
սահմանադրությունը
նայեց
կողմերին
մանկության
##պե
##տար
ոմանց
ուսանողներ
օրաթերթի
իրեր
փորձեց
ընկալում
ծնունդ
հաջողությունների
որո
բաժնետիրական
զբոսաշրջիկների
առաջնահերթ
գիծ
մայրս
օդանավակայանում
բացառել
էթիկայի
ճգնաժամը
կարճատեւ
##անց
##րէ
աղմուկ
հայրենիքում
սահմանած
ժո
թափ
ծառ
ունակ
ինքնավար
գումարների
վրան
պաշտոնավարման
քսանի
առաջնորդի
դժվարին
սիրած
նվագախմբի
թուրքերը
իրավիճակն
ներուժը
##ռել
գործիքներ
թուրքերի
անդրադառնալ
կենտրոնների
##դեն
լցնել
գոլի
մեղադրվում
##րտ
տեւողությունը
հիսուսի
մահացու
կաթոլիկ
տանելու
տեսակներ
ավարտված
խեղճ
ճակատագրի
վերածվում
թույլատրվում
##ցե
ցմահ
կարգավորում
մեթոդը
նիստից
ահավոր
համաժողովին
տեղափոխվում
ժամկետային
հատկանիշներով
մոռանալ
սոնա
հրաման
իրերի
համարելով
##տոն
հաղորդակցության
աճող
գնանք
պատիժ
ապահովող
մոռանում
կասկածանքով
ստամբուլի
կատարող
##ժան
##վեին
ինձնից
բանտում
փաթեթը
քննադատել
կողմերից
կոչել
գործոն
արտադրությունը
բաների
նվազեցնել
ծխախոտի
գնահատականը
ավարտելուց
վերեւում
հարկերի
##կեն
գրադարան
մոտեցումները
չլիներ
##ռը
նշեմ
վարպետ
յատկապէս
փաստում
կոմպոզիտոր
զարգացումների
ձեռքում
հույսը
ստանա
գործողություններին
մյուսին
անվանի
ժամանակաշրջանի
տեսակները
բարելավել
դեմս
հաջողակ
##լիկ
մեկնարկեց
կմասնակցի
##տեն
բո
արագությամբ
բարձրացել
միխայիլ
##մեն
արյուն
ինք
ձայնի
պայքարին
փաստերը
առած
թղթի
շառլ
կովկասում
չկարողացավ
գոհար
ավարտական
դիտարկմանը
##կական
##ցեց
մոլորակի
մասիս
ծանոթանալու
մահանում
կանցկացվի
ցուցանիշները
աղքատության
արձագանքում
##ատար
##ձեւ
ղե
կազմող
նին
կապիտալի
աթոռի
հիշյալ
##մէ
##ջում
կոդ
օրակարգը
##չական
տեսած
ավելանում
արքեպիսկոպոս
##եսը
կազմակերպություններին
օրինակով
հանելու
հավաքի
մեծամասնության
շարժական
քնել
ակտիվության
ավանդի
տասներեքերորդ
ջանքերի
կրնար
հնչել
ծառերի
մտերիմ
կառույցները
հայերն
մեկնաբանությունները
##լիի
խմբեր
հերքել
հանձնաժողովների
ատելության
թեհրանի
մորը
##աների
աշակերտ
վճարի
համայնքին
գուրգեն
մրցաշրջանի
##ետը
ընկերը
խաչատուր
##շան
ցուցաբերում
գրիգորյանին
դժբախտ
կազմակերպած
զարգացող
##չով
նայելով
դիմակ
միանում
##րող
թագավոր
անցյալում
տեղերում
մեխանիզմների
##վը
ընդգրկվել
շարժվել
սփյուռք
պաշտոններ
գիտնական
ծախսել
դերում
խուսափում
ուսումնասիրությունների
սահմանելու
խառնել
հունվարին
խայտառակ
բազմազան
րէն
վաճառում
արձակվել
##ազ
ձմեռ
արտադրանքը
օրենքն
##չների
ընդլայնման
##գույն
##րության
ժամանակահատվածի
գոյությունը
պատասխանի
##ուլ
տաճարը
##ւր
քնի
մեղքը
պարտքի
առնչվում
##պատ
ավելացրեց
սարքերի
ղեկավարությամբ
ստեղ
օգտագործվող
հարազատներին
իմանալով
##ծվում
սենց
##տման
հարաբերություններին
ֆիլմեր
այնպէս
կամք
ջորջ
լեզուներով
հյուրերին
լե
հոգաբարձուների
հունիսին
զարգացումները
ժողովուրդին
դիտվել
տեղադրվել
միջոցառումներին
ղեկավարած
մրցանակը
արծաթե
##ուկը
ամենատարբեր
հավի
միջավայրը
առավելապես
շունչ
նախագծերը
գաղտնիքը
ակադեմիա
պլաստիկ
##րություն
ազ
նախագահության
վստահում
քննիչ
ծնվում
ապացույց
հանքի
գաղափարներ
##նիկ
սպա
եկամուտ
գաղափարների
գաղափարները
ցավում
ժողովուրդի
ցուցարարների
վարչությունը
իմացել
##ներս
##սային
թովմասյանը
##չության
մատուցում
արշակ
ճապոնական
եվս
ռիսկերի
խանութ
պայմանագրերի
ազգանունը
լինեին
##իկի
կբերի
եպիսկոպոս
##գին
##կոն
վանեցյանը
կորոնավիրուսային
թումանյան
ոստիկանությունում
դուստր
ակնհայտորեն
դրույթները
մանուկյան
սեքսուալ
ասեք
##բը
առողջությանը
##ոցը
##կեց
երրորդը
կողքի
հեռուստաընկերության
երկաթուղային
գնահատվում
նպատակահարմար
խմում
կանի
այցելեց
հեռուստատեսության
վեբ
##ռն
բազմաթիւ
##գան
բաբայանի
ծեր
իջնում
##թան
ինքներս
ստանձնած
տրամադրվող
խորհրդանշական
քե
շիրակ
կազմելու
ճանապարհների
պաշտոնյաները
պատերազմին
թույլտվության
ֆիզիկայի
դատավարական
վկա
շաբաթը
գործադրել
տարվում
փաստերի
շրջանակը
պարբերական
ստեփանակերտում
##հան
ապահովագրության
##ջյանը
հուշարձան
##ույթ
անհատի
աստերոիդների
շուկայական
բազմակողմանի
##ագրական
առաջանալ
ամենին
պապի
վճարելու
մսի
փողը
##րու
նիկոլի
պայմաններին
անդրեյ
##գում
թիմում
տուրքի
խնդրեց
##նային
##ալը
մարզպետը
վեհափառ
բառերի
##ողները
դանիել
ռադիոկայանի
տեղակալի
բյուջեից
գասպարյանը
կալանավորված
հեղինակները
կապան
հարությունյանն
սահակ
բերելով
համարի
տեքստը
ասիայի
կահույք
դժվարությամբ
գերակա
երեւույթների
սրան
հայը
տասնյոթերորդ
##ացմամբ
աշոտյանը
մթնոլորտում
խաղերում
յորքում
նպատակները
տարիքը
##րային
արմավիր
պայմանավորվածություն
հերոսը
նորմատիվ
նշվել
նորանոր
վանաձորում
հրազդան
ձյան
ստացան
օրգանների
հայրենիքին
պարսից
տրամադրվել
կարապետյանն
ամուսնացել
կապել
բնույթը
խմբակցությունը
քարտուղարը
առողջությունը
տարբերակով
##ենտ
ելույթի
նախեւառաջ
վստահեցնում
##ապես
աշխարհն
էսօր
թբիլիսիում
զգայուն
ենթադրվում
կիրառական
տարեց
լարվածությունը
սկզբունքային
ցուցադրել
բավարարել
նպատակի
վերցված
մատակարարման
երեւույթը
արվեստ
նաիրի
խորհրդատվական
դժվարություններ
վերադարձնելու
ենթակայության
տների
բնավ
թո
փակում
լիքը
լրջորեն
տարուց
կորուստ
##ֆը
տարիները
թբիլիսիի
հանդիպելու
ընդունվեց
##լեն
իմանա
##ակն
վերլուծություն
դիմելով
բուհերի
գորիսի
##տած
գանձասար
հյուրերի
առատ
խփո
ֆրանկոֆոնիայի
ֆուտբոլիստի
##ւեց
##ացնելով
հետախուզության
շանթ
##տված
բացատրություն
իմանում
սպանում
##զյանը
աղետի
համատարած
ղարաբաղ
պատրաստակամություն
կատարի
զրոից
##ցնելու
պետերբուրգի
վնասել
մտահոգիչ
##յը
հոգեբանության
մեղադրանքով
ձայներ
վնասվածքներով
եղաւ
##ոցի
կանխարգելիչ
հետաքննության
մրցակցային
գեղամ
նկարներ
զվարթնոց
խորհրդատվություն
սպասվող
խօսքը
տայ
քոչարյան
բարձրացրել
նկարները
բանաձեւի
ստեղծելով
առարկայական
դատապարտում
ծավալի
տարեկանից
զիջում
ինքնության
կանչում
անհավանական
վարելու
կարա
աստիճանով
ջեյմս
մատուցման
կանադայի
համահունչ
օրենսդիր
հմտություններ
հարազատները
##ճեան
կառույցը
##րելու
ովքե
ձեւերը
##վո
տրվող
յունեսկօ
համակարգեր
ճնշումը
##մում
եկեղեցիների
ավտոմատ
փաստաբանի
##ահայ
ջեռուցման
##դեր
կենդանակերպի
կարծիքներ
նորմերի
օգոստոսին
թաց
ծիծաղելի
ռուսաստանյան
փրկելու
տղամարդուն
##վելով
ցուցահանդեսի
ողջունել
ասեն
համայն
կամուրջ
սահմանափակում
անեմ
գիշերվա
միջնորդություն
դասընթացների
հետազոտություններ
քամին
արյունը
հարցման
սուրիոյ
էստեղ
արաբկիր
հանգամանք
դասընթացի
մոտեցավ
աշակերտներին
նահանգները
ճանապարհները
նետել
ծավալների
վանի
չարենցի
քսանքսան
երկրներին
փետրվարին
շահերին
առողջություն
որոշեցի
մաքրում
ցոյց
թի
ինքնասպանության
գայ
հենարան
##թյունը
էապես
հրեական
մոդելը
պատրաստվել
գալը
զբաղվածության
շրջապատում
չպիտի
երիտասարդներ
արտահայտվել
ուժերով
##ոլ
վայրեր
վերցնելու
մեքենաները
մեթոդների
ժառանգությունը
խնդիրներով
դոլարով
հիմար
առանձնանում
հարությունյանին
ապրի
##անների
խմբին
ամփոփում
միջից
ետեւից
կադրերի
կենդանական
էկոլոգիական
եհովայի
գործարանը
միանալ
պահանջելով
երկնային
ժամին
##ոզ
տպավորիչ
վարակված
հետեւյալը
մեքենաներ
գործընթացն
տեւում
##զում
նախաձեռնել
ալբերտ
օրով
գործարարների
հանդիսատեսի
##անման
մտքով
ամուսնուն
եկա
տանի
չգիտեն
առաջարկները
ծավալները
ստեղծագործությունների
լցնում
հասցեն
բուհի
##ացրեք
ապաստան
##լո
աստերոիդ
օրինագիծը
հոն
աշխարհից
հավերժ
ինքնորոշման
չափանիշներին
հաշվապահական
փորձերը
կատարվեց
##ստների
լոյս
օգտվելով
##օք
հրապարակի
աչք
##ագրման
գործընկերներին
##ումից
ձեռքերով
հեռավորությունը
վերականգնողական
##նէ
կիպրոսի
զարմանում
հարյուրերորդ
ներկայացում
գրադարանի
փախուստի
բնակավայրերի
ձեւավորումը
##եցման
թաղամասում
նայեք
նահանգներում
վրաերթի
##ձի
մրցաշարում
անհաջող
տասնութերորդ
ռեժիմով
սովորեցնում
առերեւույթ
վաստակել
բարեփոխումներ
խորքային
այգի
հեռացավ
քաղաքին
ձերբակալված
կուտակային
կռիվ
##ացվի
##սյան
խիտ
մնացածը
տեղեկանում
լսելով
##ցվող
երգերը
սայաթ
##եթ
գազպրոմ
եզրակացությունը
պետությունն
անցկացրած
էջմիածնում
հանքային
փորձենք
պալատը
հատկացված
##եցնելու
կոմիտաս
հնարավորությունից
##ացա
տները
ցե
հիվանդանոցի
ամսից
հարգում
քննադատության
պահանջներ
սոցիալիստական
բերի
զեկույցը
զենքը
մարմինն
հաճույքով
առնելու
այցելելու
մարկ
զվարճալի
քայլել
##ացումն
հրավիրվել
բնակչությանը
ջին
բացահայտման
##ութենէն
քաղաքն
երջանկություն
գնդակը
բալետի
##յք
նորակառույց
պատահում
##վերի
մեղադրանքը
##ստան
կաթի
կոմունա
ձեռքից
վիճակն
լուսավորիչ
##ածին
հանդիպումն
վերստին
պարտականությունների
գործարքների
ֆրանսերեն
կիրառվող
քաղաքացուն
հաստատող
ռեջեփ
ղի
էրիկ
փրկության
ղրիմի
կովկասյան
բացեց
իտալացի
արեւմուտքում
##ցումը
վեպի
նախագիծն
գործիքների
##կվում
դիրքի
աշխարհահռչակ
բարեբախտաբար
իսպանական
ունեի
ղո
##կոյի
միավորով
##ցէ
դրսից
##էս
համաժողովը
թաքցնում
##թեամբ
հնդկական
չնչին
անվավեր
ցանկ
շարունակելով
հաստ
դրսեւորել
սկսի
բարեփոխումները
քառօրյա
##խում
դեպս
նկարիչների
##թոն
թաղամասի
տարածքով
բորիս
##պան
մեղք
էներգիան
ջրերի
գրասենյակում
պարտք
թվին
երեխաներն
դիլիջան
բարձրության
սպանությունը
պայմանավորվել
շտ
ուեֆա
կուտակված
մասնակցեց
համակարգն
հուլիսին
վայելել
կաթ
պարտություն
##ավորումը
հավաքվում
##նո
իրազեկ
բեր
նախարարությունից
ժպտում
մեթոդները
բարձրացումը
դատապարտվել
##յական
քամու
դասարանում
կառուցումը
կազմով
անցնելով
##արդ
բարձրացմանը
երի
բնագավառներում
գյուղերում
տամ
քաղաքացիություն
իրերը
վարդանյան
փոստային
քարի
թուղթ
կեղտոտ
նշաններ
բաժնից
վայրից
վարորդական
ազգին
նկար
հիշեցրեց
հսկողություն
ցուցարարները
տասնվեցերորդ
շոու
գործարան
միավ
ցուցակի
հանձնվել
իտալիա
լեյտենանտ
ինստիտուցիոնալ
ցուցանիշների
##ակիր
աղբյուրները
զգացումը
տոնին
##զան
ներառել
զգացել
##ներէն
ավելացրել
արծրուն
մամուլ
ժամանակում
պահպանումը
քաշի
ըմբշամարտի
փողոցը
կարգավորել
սպիտակի
գրանցում
սկսված
թողեց
սրանից
անապահով
գովազդային
##ութիւնների
արեւը
պայման
օպերային
մեթոդներ
սպանված
պատմաբան
օրգանիզմում
արտագնա
գեղարվեստի
##ետի
##առու
հյուրանոցի
##կերի
##շա
մակերեսը
տասնչորսերորդ
վարժարանի
հիսուսը
կայացնելու
##շել
նշանակման
ամենահայտնի
համենայն
շրջանին
գումարման
մակարդակ
բնությունը
արք
հայրն
փողի
ուսումնասիրություն
պայմանով
գերազանցել
հեղուկ
մտքերի
գենդերային
հրազդանի
բանակին
ընկերությունն
##հայ
անչափահաս
ազատման
այգին
հանդիսացել
յայտնեց
պապ
վճարների
մեղրի
կներկայացնի
##տն
ռու
հայրապետյանի
գույն
սպորտ
էներգիա
ռաֆայել
սխալները
օրինակներ
մտածողության
նախիջեւանի
եղեռնի
կարգավորումը
միավորման
հրաժարվելու
քննվող
##ասի
դարձեալ
նարինե
չինաստանը
##լյանը
սուրճ
վնասը
ժամկետները
հիմնել
տեսանք
ոլորտին
ձյուն
հեռանկարները
կողմնակի
սարքավորումներ
դպրոցներ
արեք
ներկաներին
չա
ասիական
չեղյալ
##սոնը
ֆուտբոլիստների
##ջը
ծիծաղում
պսժ
տնտեսագիտական
ակցիան
բեռնել
այնինչ
աստղ
գրիգորի
ել
հյուսիսում
սաղ
փորձեր
##տերը
վերոհիշյալ
##ացնենք
հասնելով
վճարովի
պաշտոնյան
վարքագծի
գդալ
երկինք
փրկարարները
հուսալի
համաձայնությունը
##սկու
թեյի
միակողմանի
առնչություն
երջանկության
զորամասի
ամանորի
սրտով
մեկնաբանություններ
արտադրանք
մեդալով
անցում
հաճախորդի
քաղաքակիրթ
ուսուցիչը
բրյուսելում
հէկ
վերջինը
քոչարյանն
վերակառուցման
համամասնական
պայթյունի
եզրափակեց
գործառույթների
համերգը
շինարարությունը
իրավաբան
վերանայել
դանիելյանը
դադարեցման
քառակուսի
##եա
ոճը
որակական
ասուլիսում
երիտասարդի
##լում
նպատակներին
դարեր
##սիկ
կիսվել
հասկանանք
հիմնադրամ
##իվ
ցին
նորություն
##ծը
պլանի
փորձելու
բարելավում
նշած
մէ
##անս
##մայի
##ցության
կորստի
աստվածածին
բեռը
մանաւանդ
տարբերակներ
##րությունը
դեսպանին
##նով
առավ
նստաշրջանի
ժպիտ
վարվել
##գրեր
քարոզչության
տղային
մնացին
շահագրգռված
լայնորեն
թափոնների
ուրիշներ
մբ
ավետիսյանի
հայտարարությունների
շրջանակների
կրած
նախագահությամբ
դոցենտ
հաստատուն
սխալվում
կոչվել
##ավորվում
գործունեությունն
կարեւորելով
մտած
կազմակերպչական
երեւույթին
նվազեցման
ձու
ելքը
կրկնել
##սոնի
նվերներ
գոլը
ունե
անմիջականորեն
աշխատակիցներ
բառարան
գցում
թեմային
հրազենային
դրած
հայրենասիրական
համապատասխանության
նոյնպէս
թունավոր
կեանքին
լավրովը
##վեցի
գրիգորյանն
վիճակագրության
##սկին
սնունդը
ատոմային
իպ
հետազոտությունները
ղու
ժամանակից
բավարարում
քննադատում
յայտնի
շնչառական
պատին
բնակարանում
կառավարութեան
մինասյանի
մթնոլորտի
կարծիքն
պատանեկան
անցան
լսելու
կկարողանան
կող
ավտոմեքենա
հողերը
նել
մկրտիչ
ենթադրյալ
ժամկետներում
արժանապատիվ
սպառողական
բացահայտելու
խնդրեմ
ձեռնարկում
կազմակերպումը
միանալու
ունին
հանդիսանալ
լը
զարմացած
##ուել
ծնունդը
լռում
տրամադրությունը
եվրոպան
լոնդոնում
անդամներն
բարձրակարգ
երգել
տարածաշրջան
##ագրել
ռիչարդ
տարելիցին
դեպարտամենտի
##չյանը
հսկա
միավորված
վարուժան
ծեծել
##բին
հաղթական
թույլատրելի
մնալով
սոսկ
լուրերի
##րատ
գրառման
դառնան
նուբարաշեն
վերահսկում
##իկը
վարույթի
բդխ
վախի
վերեւ
համանախագահ
մնան
սրտում
փայտե
փոխհատուցման
վստահելի
գերատեսչության
հարցազրույցի
վիճակից
խորհրդանշում
պատասխանատվությամբ
պինդ
կրակոցներ
եզրին
հիմքերի
ռեկտորի
լեցուն
հրամանատարի
լաբորատոր
պատասխաններ
##անական
ակադեմիկոս
հանդիպեց
##րտի
մեղքի
##անին
հաղթելու
վիրավորում
ստեղծագործությունը
կոտրել
##ղերի
այցելության
ապահովելով
կրոնի
կլինեք
հանձնում
հաշվարկ
պետերբուրգում
մեխանիզմներ
վիրտուալ
դեսպանության
դասընթաց
ձեզանից
հանեց
մեղադրանքի
օդում
խմբավորման
պատմությունն
կանցնի
ռեալը
##նելով
վարած
դատարանին
առաջընթացի
գործառույթները
երգերի
թերի
աշխատի
ներմուծում
բլոգ
հոտ
ախտորոշման
թիմերի
շինությունների
էստոնիայի
անցկացրեց
ոչնչացման
##ոմ
անուղղակի
ֆակուլտետ
##գիտության
մեղադրյալ
պարագաներ
##կար
նվազեցնում
պատարագ
սաֆարյանը
իրավախախտումների
սեբաստացի
մրցութային
ունենայ
ժամանակներից
տեղադրման
երկարությունը
ցանց
լինելուց
նախապատրաստվում
եխ
սպառողների
##ոտի
##ապետ
հաշվետվության
խորհրդին
հրաժարվեց
միտում
##ապատ
հաղթահարելու
ուրիշներին
օրենքներ
քառորդ
հետաքրքրությունը
հուշարձանի
ստորագրվել
ծավալով
վայ
զեկույցում
մկրտչյանի
վարակիչ
ղեկավարներին
ավետիք
գրագետ
կայացնել
մերի
գարիկ
հաջողությունը
փոխվի
վեպը
ալի
##սան
մարությանը
ուղղափառ
##եցան
##ունք
քու
քաշել
գողացել
ոստիկանապետ
ապացուցում
ինքնատիպ
հեղինակություն
##սական
խոսնակը
տեղափոխելու
իջեւանի
ուղեկցվում
արտադրող
սիթի
նախագահները
բացված
##վես
առաքելություն
##հին
տեղակալը
խորհրդանիշ
մոտենալ
գնամ
կառավարումը
սիսիանի
պատրաստի
##րվեց
թուականին
կենտրոնից
երգչուհին
##ացումից
ամենալավ
գամ
առաջնությանը
զինվորները
չեխիայի
առաջնություն
##ութիւններուն
հանձնաժողովում
օդանավակայանի
սարքեր
բյուրոյի
##րն
իրարից
ծառայությունում
պատճառված
գարնանային
նշանները
պատճառներ
պարույր
դարերի
կարդա
գալուց
հոսանքի
##իայում
##տեղ
հարցազրույցը
ինքնաթիռի
պպծ
սարի
քանակով
յուրաքանչյուրն
քույր
բջիջների
գործընկերներ
հիմքի
վերցրեց
ապացույցներ
մասնակցած
տասնհինգերորդ
հատկությունները
թյու
աստղերը
գիծը
համերգային
պատճառների
զրույց
գործոնը
օգտագործեք
գնացին
բարսելոնան
իւրաքանչիւր
տիրում
##դել
##ջան
նիկոլը
վերադարձը
կցանկանայի
##ացաւ
սմբատ
պետությունները
ընդհուպ
սիրիա
համաձայնել
ֆակուլտետը
##զին
համավարակի
##ամիտ
առանձնակի
պահպանվող
##ստը
կանոններ
փորձաքննություն
թշնամի
երկայնքով
գրականությունը
մարզադաշտում
կետերի
նախադպրոցական
##ագրության
նախարարները
ութի
արդյունքն
լուծմանը
##վար
հարյուրից
ճաշի
մեծահասակների
կասեմ
բացելու
բար
արդարացի
գո
փոխանցեց
կարդացեք
ճկուն
կախարդական
իզուր
պատճառներից
##ցա
գերատեսչությունների
ամուսնական
փիլիսոփայական
շրջապատող
եկմ
վերադարձավ
մերժեց
տրամադրության
##դո
դերասանուհին
իրականացում
իրենցից
ներսից
ունենալը
երաժիշտ
ցավի
տարրերի
փոխգործակցության
##քսի
ձեւավորելու
հարաբերություններն
խաղացող
համընկնում
ավելացնելով
սահակյանն
քով
դուռ
ամենաշատ
քոլեջի
ծառայելու
դիտորդական
անվանական
տեղերը
դաշինք
խնդրելով
մետաղական
անհնարին
խախտելու
շարքին
մասերի
ուտելու
որտեղի
##ախմբի
գրամ
սերունդը
##պէս
##նքի
ամսում
կուսակցությունները
մաթեմատիկայի
մարաշ
##չություն
վիճակին
վճիռը
հիվանդությունները
մոդելի
տարած
համանախագահները
իսպանիայում
ուրախություն
ռիսկերը
գործերին
խաղային
ճո
ակտը
թերթ
հրապարակած
արտացոլում
տասս
տարածության
արձանը
ահկ
##ադրություն
##եցված
արարողության
մահացավ
##իստ
ինքնակամ
վարչություն
ամենատարածված
զեկույցի
##վին
տարրեր
տուժողի
բարսելոնա
ռոնալդուն
զգացմունքները
բացմանը
ընտրություններն
նորքի
տնտեսագետ
##րյանը
ընկերություններ
անդամը
դիվանագիտության
զրկված
թռչող
ինծի
##այն
արժեթղթերի
դպրոցն
մելիքյանը
##չափ
թողեք
կամերային
դիմեց
կտրվածքով
հօգուտ
տակից
նպաստի
կարապետ
տալը
հյուր
գրողը
մանրակրկիտ
առավելություն
գալստյանը
գլխավորում
դեպքից
ձեւերի
ծրագրերում
գողության
ներդաշնակ
##նդի
ազատությունների
պտտվում
տեսնի
ցուցակ
զուրկ
խաղալու
##խանյանը
աշխատանքում
ըլլալ
դիտվում
##ագրերի
գեւորգյանի
##ականության
վել
կուլ
ապրանքը
գործընկերները
հողային
համակարգով
համակարգից
երեւույթի
##զել
նախորդը
մղում
խաչիկ
հոբելյանական
մասնակցեցին
անվամբ
առաքելյանը
թողնելու
ճշմարտության
թայիփ
##անյան
ընդլայնել
սահմանադրությանը
ստամբուլում
օրենքներով
ինֆորմացիայի
դերն
միաձայն
պիտանի
մայրենի
աշխատանքներում
շաբաթական
##մն
տեղադրում
պատժամիջոցներ
##լեր
##ծած
դիրքում
կրակը
զարգացմանն
խմբերը
քնում
բացօթյա
ակտիվների
արտոնյալ
ռադիոյի
չկայ
ներկայանում
քրոջ
ներդնել
##ուող
խստորեն
կադաստրի
##ւմ
հեղինակների
կիսատ
որովայնի
փաթեթի
##լայի
##դու
բռավո
շրջապատված
բերանը
օրերից
տեղափոխում
մրցույթում
##նայի
դրամատիկական
հիմնավորված
տեսություն
օրերում
շրջել
##սեն
սրանց
իվան
վանք
մասերը
վախ
վիրահատության
վաղվա
հեղինակն
մանե
տարեկանների
##կերը
նոբելյան
ֆորումի
##տվի
##պետ
հմտությունների
խորին
տեսակետ
ջերմաստիճանի
##եցնող
ոտքով
աշխատողի
կունենաք
վիլայեթի
##առի
թեամբ
սպառման
ինժեներական
նկարի
խաղերին
փիլիսոփայության
կորոնավիրուսից
աղի
բնակավայրի
հաղթում
ղազարյանի
ոստիկան
##ակին
սպառնալիքի
հբըմ
հաճախորդներին
անհանգիստ
լինեք
գաբրիել
քաղաքականությանը
յորքի
զրկել
ստեղծվեց
##օրեայ
կերպար
անցանկալի
տարիքից
արտաշես
նպատակներ
մտահոգություն
պատմություններ
##ուք
հայացքը
ժողովին
ձուկ
##եցրեց
##վարի
ճիշտն
##րենք
հայց
##ջյանի
պատժամիջոցները
երուսաղեմի
կորուստներ
##խանյանի
փոխարինելու
տեսանյութում
##ստանի
առանձնացված
ներսես
համալիրում
վարդագույն
գնացի
մեկնելու
սահակյան
դեն
հիմունքներով
բովանդակային
էջի
դասը
իրագործման
գույքային
իգոր
պարզաբանել
եկամուտները
ընդունակ
ստեղծեց
արկադի
սխալներ
հետեւելով
ցավոտ
պաշտոնին
##ուտ
էթնիկ
##ադրում
բաժանվել
տնտեսագիտության
փոխանցվել
երկրորդական
պատերի
գնան
կասեցված
խթանում
կբարձրանա
հետեւի
ծախսեր
եղբայրների
ռուսաստանցի
ինտեգրման
պատմությանը
երաշխիք
ֆոտոռեպորտաժ
հասկանա
եղանակի
իրավունքներ
յաճախ
արձանագրություն
##դային
միջոցներից
ընդունի
կարծիքին
սիրային
տրամադրություն
ֆիլմերը
բրիտանացի
հարուցել
ուսումնասիրությունը
##գել
թեմատիկ
նախատեսվող
անկման
ճանապարհն
##թերի
##ջյան
մեկնարկում
տեղիք
մաթեմատիկական
պահանջվող
դաշնակից
ամոթ
երկրպագուների
##գրված
ուղղությունը
գավառ
վերապահված
դոն
բարձրացում
մասնագետը
##ացիա
այրվել
կինո
վանական
խորագիրը
արտասահմանում
գործած
##ուրի
պալատում
տիրոջը
վերահսկել
##ադրեց
##ցն
հօր
տվող
դիլիջանի
##յլի
հրավերով
ուժերում
երկ
հուն
կոմունիստական
հակասական
տասներկուսի
միջամտության
չտալ
սերունդների
##յունը
երկնքում
համապետական
գործիչները
պատահաբար
թերությունները
հանկարծակի
արդարություն
ակամա
##մեկ
խոչընդոտում
աս
բարերար
էդպես
պաշտոնյաներ
բարձրությունը
վեհաժողովի
սեփականատեր
տունն
անցկացվեց
կացության
շարունակությունը
ասուլիսը
##օն
արեւ
կոմունալ
մեռած
ինչպէ
թեմաների
ցուցաբերած
##ոյում
տրամաբանության
իսկույն
յունայթեդի
փաստական
քթի
հաղորդվում
##վային
տերեւները
##շյանը
պողոս
##ոյին
կուսակցութեան
հյուրանոցային
տաճար
քաշում
վազում
իրատեսական
բնակիչներ
տարեդարձի
ֆուտբոլիստները
հանդէպ
համաճարակի
հողին
լուծվում
կետերը
հանրաքվեն
կենդանաբանական
վախը
հացը
##շին
խախտումները
ներուժ
հորդորել
փողոցները
նամակում
մտահոգված
տեւել
տակաւին
գնահատմամբ
ձեռնարկված
ոլորտ
թվերը
##ագրերը
բաները
երկրաշարժ
բնավորության
վրայից
ցամաքային
գիտնականներ
հաս
##լն
սրահ
խոհանոցի
ստեղծմանը
հյուրանոցում
սահմանապահ
նկարահանել
ֆորմալ
արգանդի
ապրանք
հյուրերը
սահմանափակումները
##աթ
գարուն
##եկ
ընտրվում
սահմանափակումների
պաշտօնական
արքայական
վում
տուգանք
քաշը
որոշմանը
մնայ
նորարարական
գեւորգյան
սաները
##ադրված
առաջնորդների
բաժանված
պառկած
բեմ
ավետիսյան
##դրի
ծիրան
##եղեն
գորիս
հեռավար
խոստովանում
միջանկյալ
նկարչի
##ախոս
ստուգումներ
ամերիկայում
համեմատել
խորհրդակցության
պողոտայի
ներգրավվել
##ցվեն
իրազեկման
ուժերն
ուսումը
մեխանիկական
ոտքը
հաշվետվությունը
հը
տարբերակն
##ակցութեան
ուսուցում
տարբերակները
##կալ
քրդերի
##րս
կորցնելու
պլանային
##տակ
կղզու
դարպասը
ուղղությունները
զույգը
դրույթների
միաբանության
##ագրություն
կողմնակից
չլինելու
վերահսկման
օդ
կառույցներ
վերածել
##թեր
##րութեան
կատարողական
մարտունու
շահը
տեղափոխման
կարեւորեց
ողջամիտ
ուղեկցող
##ագոյն
դադարեցվել
ժամվա
##դների
##սել
ֆեյսբուքի
մեկական
անցկացումը
օդը
վրացի
հանձնաժողովին
##ագ
թրքական
համերգի
ատեն
ահագին
##պար
կանխատեսում
հավատը
ներգրավել
տարելիցի
հետաձգել
մեքենայով
տեսչության
հարսանեկան
ճի
հաշմանդամ
վիտալի
##ենա
հայութեան
ստուգումների
##էի
խո
հինգը
զիս
հայտնաբերելու
մարտիրոսյանի
իրադարձություն
##ագին
հմտությունները
չլինեն
վարորդի
սարքի
##իմ
աղվան
կոչումը
փմձ
ժամեր
հաստատվում
քայլին
շուշան
զբաղեցնող
գտավ
հրդեհը
##արկման
հետաքրքրվել
##ցեր
##իզմը
ավիացիայի
վերամշակման
օրենքին
գաբրիելյանը
նախօրոք
##ճան
ինտելեկտուալ
կայացնում
բրիտանիայում
սենյակի
նամակներ
դժվարությունները
խորապես
ուղարկելու
կարիքները
սփյուռքում
թբիլիսի
երկարությամբ
խի
աշտարակի
հոսքը
տարան
##ադրող
ապրանքային
վիեննայի
##տող
##գրում
կենտրոնն
ձեւերով
##սե
ամփոփելով
լրագրողը
կարեւորություն
##ագրված
գնահատելու
աչքը
##չեն
իրապես
լինեմ
ղուկասյանը
մեթոդ
յորք
փողոցային
հրամանագրով
##ցնենք
մայքլ
ապրանքները
##արյանը
գարնան
##եցումը
դրոշի
հայտնաբերման
մարմիններում
ուղի
սիմոն
տեղափոխվեց
անկարան
անհեթեթ
հմուտ
հրա
համակարգերը
լրացվում
##նդ
դադարել
ծնող
ուրախությամբ
ծագել
սիմոնյանի
հաջողված
ինչեւէ
##կուն
թիմային
ուղիները
##դակ
հուզական
վարչութեան
##ուղի
զգա
հժ
զինվորներին
հիմնարկների
հայերէն
կորուստը
հասկացությունը
առաջնագծում
##ցավ
խաչմերուկում
բնակարանների
դր
ակտիվությունը
վարքի
կրակոց
ապացույցների
ժամկետ
մոտեցել
ուսումնասիրություններ
դաշնակցության
խորհրդավոր
մոսկովյան
##տից
դրությունը
քննիչի
ասուլիս
վերականգնվել
թեյ
վարքագիծը
ամփոփել
##ինա
##յակի
հարկերը
լիգայում
շահի
աշխարհիկ
##րակ
դատապարտյալների
ընտրվելու
անկյունում
##ադրության
տեղեկանք
օրգանիզմը
օրինակելի
##ափ
ավտովթար
ռիսկը
աա
նշանակվում
միսը
ադրբեջանցիների
սոցիալապես
թռչունների
ուժն
լոկ
ծավալուն
##հհ
հարվածներ
երաշխավորված
##աներ
ունեինք
անդադար
ներդրումները
չու
ավելացված
նախարարությունն
ունենար
ֆր
##ավորմամբ
կերպարի
ակնկալվում
կառավարել
վանեցյանի
մեզանում
զրույցը
կազ
բարձրաձայնել
դասերը
ցեղի
արծվիկ
համանուն
մեծամասնություն
շփվում
երկխոսություն
անձնակազմը
հոգում
ցանցերում
նախարարությունների
արժանացավ
սպառնացող
վերաբերեալ
վարկեր
##ցաւ
արսենալի
մուրադյանը
հայտարարելով
լուսնի
մերժելու
իրաքում
զանգված
##որդը
առաւել
կտամ
ստացման
լինես
հետաքրքրական
##ատիվ
առաջարկած
տուժող
ձայները
պարգեւ
սահմանափակումներ
դրսեւորվում
վաղաժամկետ
գործոնների
բռնում
տոկոսն
ինտերնետային
կիրառմամբ
##սկ
արգելում
կարճաժամկետ
հղումներ
բացառություն
ծրագրերով
ուկրաինան
շվեյցարիայի
գորշ
պարսկական
սուբյեկտիվ
մարի
հագուստը
բանով
փակվել
այց
գնացեք
մեկնաբանում
համալիրը
մղել
պատերը
եվրատեսիլ
ծառայող
պնդմամբ
թմրամիջոցների
արժեքներ
ռեսուրսները
հերոսները
հրապարակումների
##ստի
ամրապնդել
բացասաբար
խնդրահարույց
քարտ
երազանք
կարգավորմանը
անկարայի
հանդիսատեսին
քույրը
հերոսական
վավերագրական
թեմաներով
հատակին
բաշխման
մանկավարժ
##յտ
##ւը
արձակուրդ
##իդ
աննշան
սեւակ
նախաձեռնությունների
կարգավորվում
այլք
##ավորների
հարցրել
քայլերով
հետադարձ
փաստաբանական
ուղղություն
պարտության
սարք
մու
պատվին
##ավորվել
հետքերով
փոքրամասնությունների
նորաստեղծ
##նակ
նկարագրել
վերադարձ
բառից
պահպանելով
ճակատագրական
իրատես
մշակումը
բուհ
դժվարությունների
ղեկավարներ
արձանի
լեգենդար
հավելված
ցավով
ծռերի
իրավապահները
մկրտչյան
վստահել
հոգեբան
ընդերքի
դասընթացը
իրավունքն
հանձնարարությամբ
##տիվ
երազանքը
շենգավիթ
կգմս
մետաղների
պարագային
ուղարկեց
կառուցվում
հնդկաստանում
ջերմային
փորձագետը
ձեւեր
թէեւ
կոռուպցիան
##ձեն
համառ
սահմանափակվում
##դար
չորսը
սխալը
համերաշխության
նազարյանը
սովոր
դատախազություն
հարձակումը
տասնչորսի
##ադրվել
հորս
##ունը
շաքարի
տը
հանձնման
##ացրած
ինֆորմացիա
տէրը
ալիքի
պաշտոնյա
սովորող
բաժիններ
հրամանը
վաշինգտոնի
մեծացնում
ֆիզիկապես
թվերի
բուժել
անհատների
խնամք
նորաձեւության
հեռանալու
հրանուշ
խորհուրդն
եզրափակչում
##յուղ
ինձանից
ստորգետնյա
բաժանմունքում
զինվորը
կոալիցիայի
տեխնիկան
բազայի
յե
##աշինության
##եցնի
հավասարության
կրճատել
արագորեն
թոմաս
կարողությունները
հոգնած
վնասված
վերածնունդ
փաթեթ
սենյակը
##խա
արմինե
դիրքորոշման
դափնեկիր
տեղեր
##նն
##ռա
իսրայելը
##գոն
ալեքսեյ
##րանի
ձեռքերի
դուն
վերանայման
##գրության
ազատագրման
կեսից
վառելիքի
աշտարակ
կայացրած
ազնավուրի
անձն
եղբայրները
երես
վարչակազմի
ճանաչումը
հանգամանքներ
հյուրընկալել
ռազմաքաղաքական
ունեցանք
տպվել
##ճում
ֆեյսբուքում
կիմ
շահավետ
համակարգված
առեւտրական
մայրն
նպաստավոր
տարաբնույթ
ֆելիքս
ռիսկային
զարգանալ
շտապօգնության
տրամաբանությամբ
բելգիայի
երկկողմանի
նուիրուած
##լանդիայում
սիմոնյան
փակման
հաղորդագրությունում
միջադեպը
խտրականության
պատգամավորներին
նշվեց
##նու
հատուցման
պարտվել
համանման
կարդալու
մտս
նմա
ռազմավարությունը
լրագրողական
##որում
##ադրվում
բեմում
ընթերցված
շվեդիայի
կլիմայի
##մոն
կիլոմետր
հուզող
կդառնան
օհանյանի
դեկորատիվ
որակ
առջեւում
վնասում
ինչքա
յուղ
դպրոցները
բուլղարիայի
սո
սկանդալային
արքայազն
առաջարկի
տեղեկացնել
էդքան
յունայթեդ
ծառայություններից
հանգեցրել
##դով
ցանցը
##նից
հարաբերական
խոսքերի
ավանդույթները
համալսարանական
գործընթացներին
տուրիզմի
##ծություն
վստահաբար
առաջնորդվում
հիմնախնդիրները
սկզբունքի
հայտը
##յո
կմասնակցեն
սենատի
անդամակցության
դրոշը
ճիշդ
դրանցում
վերահսկողական
միգրացիոն
կեդրոնական
ձեւավորմանը
անհարմար
ստորաբաժանման
աշխարհով
նորաձեւ
նվիրում
լրագրողներ
նախաձեռնություն
նախաձեռնող
բառով
զգացողություն
կազմ
##շեր
կենսաթոշակի
հոդվածները
օբաման
##զման
համառոտ
##անյանը
պահեր
ցուցադրում
խանգարել
##ատեղի
ստանան
##ծությունը
ներառական
միմիայն
յն
##ացիան
ավստրիայի
կսկսի
##ծման
փոխկապակցված
օրերուն
բանաձեւ
մանկապարտեզ
նենց
պատգամավորական
թողնի
ինքնասպան
արտասովոր
թեկնածուին
##խված
բերդ
խաչքար
ամենաշատը
կատեգորիայում
ֆոտոշարք
մտցնել
##ագիրը
##ակալ
նահանգներ
պատկերացրեք
կանոնակարգ
արսենալ
##գային
ցորենի
հետեւելու
ուկրաինա
##չել
իրանից
մխիթարյան
ֆանտաստիկ
բարձրորակ
թարգմանիչ
վայրերը
ակտերով
փոխանցելու
թագուհի
տիեզերքի
նոցա
դերասանական
##ականությունը
գիտեի
սպայական
վարդապետ
թուրքիայից
գովազդի
հաշվարկված
մարմիններ
##ականի
կանոնադրության
##բանկ
բանալին
պահանջող
նախաքննությունը
ծառը
##ռնի
օսկար
հազարից
աղջիկներին
քվեարկելու
կորցնել
չեզոք
սպանություն
խոնավ
պակասում
տուած
տեսարժան
ցանցերի
ծու
ուսումնասիրելու
նալբանդյանի
տեխնոլոգիաներ
հարգանք
##ադիր
նշելու
բնագավառի
կհասնի
ավելացման
ոգու
բռնկվել
դիմումների
բարսեղյանը
արտաշատի
ենթարկում
##յթի
մեղադրվող
տոների
վերաբերվել
հայերենի
##րդի
առիթը
ֆիլմերում
խոչընդոտ
ուսումնասիրությունները
##ություններով
անցյալը
հատվածներ
շքանշան
սանիտարական
իրադարձություններին
իրավունքներն
կազմավորման
կտրվի
համոզմունք
##անքները
մովսիսյանը
սպասարկող
կարապետյանին
փորձն
պուտինին
##լանդիա
նշանների
հեռանկարային
հազվագյուտ
պատուհանի
թաքուն
օեկ
ազգությամբ
մանկապարտեզի
մարման
սփյուռքահայ
աղետների
մատուցվող
անմահ
պարո
ընկալման
##զրո
հաշվարկման
աղբյուրներից
խորհուրդները
վանքը
տնօրենների
երբեմնի
ձեզնից
##ծության
##բանության
ռազմիկ
նախաքննական
հրամանատարը
ադրբեջանցիները
կանոններին
նկարագրում
մարտիրոսյան
վկայական
ծաղիկները
յակոբ
գեղեցկությունը
պատճառել
##չյանի
մասնագիտությունների
ծախսում
##քա
կտրում
դիրքերից
միքայելյանը
դիրքերի
եկամտային
բռնած
գործուն
մրցունակ
##իական
կենտրոններ
մարզիչը
կասկածներ
սրանով
##տու
##ավորի
արխիվ
վտբ
հովանու
##կից
սուրճի
առաջարկով
յեղափոխական
ունեցածը
գտնի
##աբեր
գործադրելու
վիրավորական
##իստական
կուրսի
աղջիկն
եկեղեցուն
չինաստան
ռոման
վճար
դառնայ
##անքների
նար
մալաթիա
ծառայողի
հետազոտությունը
եկաւ
ատում
##մանի
ամառ
հովսեփյանը
կիրառումների
##լիա
տնօրենին
արագությունը
դրություն
ինքնաթիռը
նետում
վերեւից
ուղղում
խոստումը
մտածեք
զրկվել
կատարելիս
հետաքննություններ
##ությունում
փոխանակ
##ախ
##ահար
թեկնածուները
վաշինգտոնում
գործընկերոջ
ժամանակվա
բարձրաձայն
տրամաբանությունը
դիր
փոխվեց
միսս
հրեա
երեքի
##թար
պակասը
ունէր
արոնյանը
ձեւական
նախապատրաստման
վարակման
չեղավ
վաղաժամ
կամքով
սննդային
հավաստի
խմբագրությամբ
վերադառնալով
դաշնակցական
վարույթը
պողոսյան
ներկայացնի
խօսքով
շունը
սպառնացել
բերումով
տեղեկացված
##անքներ
ամսով
հուշագիր
մեկուկես
գիտաժողովի
րան
##ցնեմ
զրուցակիցը
հարկման
հիմնավորում
##նության
հնագիտական
մարտահրավեր
ավստրալիայի
գասպարյանի
ֆինանսավորում
պետրոսյանին
միջնորդությամբ
##ուէր
բերանի
հարգել
հարցերից
տանից
անկումը
չունեք
պատմող
կողմերն
հավատքի
հյուրանոց
հասնող
##ղեր
կամրջի
աստղիկ
##խտի
տարվող
հուշարձանը
հխսհ
մարինա
եղիր
օրինագծի
##անտ
մերթ
փառքի
տիրույթում
կտեսնենք
նախատեսել
չարժե
էջեր
հանդէս
ջո
տիկնոջ
լրատվություն
հեռախոսով
հեռուստաընկերություն
ֆեդերացիան
հիշենք
մարմնում
##ւթյան
նժդեհի
նկարագրությունը
ձեռ
##արկում
հաշվետվությունների
աճին
ոստիկանությունն
հոգնել
պահպանված
վարակվածների
քարերի
անելիք
բարձրանալ
##ացմանը
ծառացած
շուրջօրյա
##երեք
##հինգ
սիրտս
խախտվել
բեռ
համայնքապետարանի
##արգ
դիանա
խաչը
հիվանդը
շնորհանդեսը
##վական
ներկայացուցիչներն
շարքի
ուսուցիչները
ջոկատի
անտառ
ըսէ
կենդանիներ
խորհրդում
արարքը
պլանը
ձին
բախվում
գագաթնաժողովի
նյութերով
հեռակա
սեմինար
տեսությունը
##տր
ձվի
աթոռին
միջկառավարական
թանգարանների
թիրախ
հովհաննիսյանն
ներդրողների
օրակարգային
##րերի
փոխնախարարը
քսանյոթի
կալանավորումը
ռուբլի
երազ
կորուստների
ռադիո
շարունակվել
ուղերձում
##ացրին
խոհանոց
##հար
գլխուղեղի
լիճ
շոշափելի
կարգավիճակում
մեխանիզմները
արիական
կոլեկտիվ
հեռուստատեսային
ստուգելու
օսիպյանը
հոտը
պարային
մանկապատանեկան
շարունակի
լրջագույն
ելքի
ազատում
հյուրեր
վերահսկողությունը
խանութի
ակտ
փախչել
եղիշե
հավաքականում
նստավայրում
յոթը
ջրում
մեղադրական
հաստատումը
մտա
ցանկանա
ամբողջը
մասից
սարքել
անգլիացի
աշխատակցի
արգելքը
խլել
շրջում
##լային
հրեաների
##եինք
անտեսել
փոխանցվում
##օր
##զային
հավանության
հանճարեղ
աշակերտներ
##ագործ
արգենտինայի
դիտարկվում
բաղդասարյանի
սար
բարձրացավ
լո
պահելով
պատվիրել
##յքի
դժվարանում
բարելավելու
շեշտում
կգն
ոչնչացնել
ասամբլեայի
փախչում
##սո
աւարտին
կալանքը
ամերիկա
ծագած
հեղինակությունը
ազատամարտիկների
պատրաստած
լիցենզիա
քուրդ
անհանգստացնում
մոտեցումներ
##դիկ
կիլիկիոյ
ստամոքսի
բնակավայրերում
շարադրել
խթանման
ճապոնիայում
հայրապետական
հարեւանների
դեմքով
փոփոխություններին
կլինեմ
վաճառքը
հավաք
վարորդ
##ադրի
ընկերոջը
բարձրացրեց
աղջիկներ
սկսեք
ընտրած
նախագծային
փաստել
##իության
##տես
արեցին
##դն
մարտակերտի
ընթերցողին
ջավախքի
##ադրվող
իննի
տեսնեմ
գիտելիքի
հարավում
եռօրյա
տեսարան
համացանցի
հանվել
##տրի
այցելուների
##աչափ
բանին
պրոդյուսեր
գու
կարծիքները
պաշտոնների
մուշեղ
##դյան
հարցաքննության
առնենք
ներկայանալ
հնչած
երկրպագուները
լվանալ
ակնկալել
հդմ
աստծուց
բաժանման
իրանին
ուղեկցում
աշնանային
մարզչի
##ժը
դդ
առավելագույնս
գիր
վարվում
##վով
համարեց
տք
պահանջելու
պատկան
##ձոր
խառը
վարման
ամենակարեւորն
փրկարարների
աստղերի
իսրայել
բոլորից
պարտվեց
##րվող
խոզի
մակերեսով
մարզպետարան
գողություն
կալանավորվել
##որդները
դիրիժոր
կազմակերպություններում
սիլվա
ձեռնարկվում
ինստիտուտների
հետաքննություն
##ակա
դժբախտաբար
մեկնած
կարծեմ
հայացքով
մարգարյան
##ւին
##թով
սպասված
պետին
օրենսգիրքը
հրատարակել
##որդների
հանգիստը
##յլը
գյուղացիները
յովհաննէս
##տոյի
##ցվեց
կենդանիները
վերլուծությունը
##րիկ
դասավանդման
պավել
լսվում
շրջանառվում
##րութիւնը
##ռով
րած
զգուշացնում
տներ
հեռախոսը
պատրիարքի
##թերը
հարկը
##ականները
ալիքը
աղմկահարույց
ուղղություններ
ամբողջականության
##րների
վիրուսի
դահլիճ
ծնողական
տուգանքի
արաբիայի
գյուղերը
ուսերին
բանաստեղծի
ներուժի
շարմազանով
պատուհանից
գործչի
արդյունքներն
##չյան
ընկերությունում
որք
գտնուող
անտանելի
կորպորատիվ
շենքերը
ցուցաբերելու
ռեսուրսներ
##րութիւն
պետրոսյանն
գնդակ
կանցկացնի
հեքիաթ
ակադեմիայում
հարցնել
ճշմարտություն
էմոցիոնալ
աշխատատեղերի
թիմերը
քաղաքացիներից
ֆոն
##հկ
խոհանոցը
քաղաքներ
առավոտից
հայտարարելու
հանրահավաքի
որոշվել
վթարային
րել
ավտոբուսի
զրուցում
##անքով
հրատարակվել
գնումներ
կամավորական
վարորդների
լավագույնս
հորիզոնական
կազմվել
արքայի
ավինյանը
##տերի
լցվում
գիրքն
դիտարկումները
կտեսնեք
ամփոփիչ
աչքով
ետեւում
հանցագործ
հետը
արքան
հավաքածուն
բախման
եղբորը
կոնվենցիան
քանդակագործ
մեխանիզմ
կանոնակարգի
լուսանկարների
կորոնավիրուսը
բրազիլիայի
անձնավորություն
երկաթե
անբավարար
վերլուծել
մտահոգ
##անն
թարգմանել
պրոցեսը
վիեննայում
օրինականության
լեռ
աշխատողները
##դոն
պանիր
##վանի
շուն
փյունիկ
##անել
գրավեց
խորթ
կեանք
##ացիոն
##դյանը
քննությունների
երջանկությունը
փակված
լիդիան
հայցը
խղճի
##ծեց
հավասարակշռված
##ուսը
##վանք
կմեկնարկի
հակոբյանն
խոսենք
նախորդող
գույները
##իչը
դիտավորությամբ
ամպրոպ
իշխանութեան
նորայր
բերեցին
վարկանիշը
պատասխանատուն
կանխիկ
##մեր
մասնակիցը
##ատան
ոստիկանությանը
այդպէս
կասեք
կլինենք
միությանը
լիտր
ձեռնարկատիրական
պայմանագրեր
բաժանմունք
բաբայան
գումարտակի
նալբանդյան
երթ
երկխոսությունը
գող
գրանցումը
անտառի
բրիտանիան
հավերժական
պարենային
աշխատակազմը
##յցի
ընկերային
հարցերն
զգացվում
սեքս
տրամաչափի
##ետա
ստացվի
բերվում
ցան
ալկոհոլի
ժամից
տպագիր
ծառերը
կույր
##այից
ստեփանյանը
լիբանան
գավաթ
տարբերակի
ժողովածուն
երանի
ճանաչողական
ձայնային
մասնագիտություն
տնօրենն
բաղադրիչները
հասկանալով
մեխանիզմը
##ղա
գրեց
համեմատական
կառավարությունների
##յեն
հայտնվելու
##լերը
##սիա
հայրապետը
##աները
հայտարարությունն
պյոտր
ամուսնությունը
լեզվական
հարկեր
սարքը
ազդակ
##եցում
ամբիոն
բանաստեղծություններ
դռների
ամփոփ
ընկալվում
##րանում
դինամիկ
##անները
եկամտի
արեւելեան
ուղարկված
ճակատի
ողջույնի
մրցակցի
անվտանգությունն
կարիքն
գնահատականներ
տեւած
պատարագի
թել
լյարդի
եւրոպական
##ուղու
լենա
հագուստով
մայիսյան
աշխատատեղեր
##եստ
##շվի
արցախպրես
լարվածություն
միրզոյանի
երեւույթները
##լինի
շեշտը
առանձնացնել
հհշ
քաղաքականությամբ
հերիք
արմատները
սոված
ցուցանիշ
##ճը
խթանել
##տեք
վերականգնում
բանկում
կանգնելու
ձիահ
տող
քարը
զանգվածը
կում
մասնակիցներից
գերի
համագումարի
մշակվում
քաղաքականությունն
թիվս
արտադրում
կադրեր
պողոտա
փողերի
եվրամիությունը
անկանխատեսելի
հեղինակած
անիկա
զրկելու
նախընտրելի
հոս
սակագնի
բարեհաջող
սկզբունքներին
ամբաստանյալ
խորհուրդների
տասներեքի
հելսինկյան
պաշտոնյայի
բուժօգնության
սուբյեկտների
նորմերը
ներն
դեպքերից
խաղարկության
սցենարի
##րեցին
անձանցից
արժանապատվությունը
##անայ
արձանագրության
հիշեցրել
մտածեցի
##ոզի
դատախազին
կարգում
օժանդակ
ցանկությամբ
խորհուրդի
կոնստանտին
փոփոխման
##լյանի
զարգացումներ
դաշտային
հավելենք
ընդգրկել
##ցիներին
զաքարյանը
ընտրվեց
թաքցնել
կարգավիճակով
##կե
դերասանը
##լե
որակավորում
գրկում
նպաստելու
համաչափ
հեռախոսազրույց
զգացմունքների
ընտանիքները
որեւիցե
##խտ
պահպանողական
գործոնները
դրսի
կրճատման
տասնհինգը
##ոնների
օրենսդրությունը
չգիտենք
հավելում
որոշեցին
ընտանիքն
ծավալել
քանաքեռ
##ակային
կոչման
մլ
լուսանկարում
ստորաբաժանումները
##ակցական
##քներով
ջազ
անհամեմատ
համոզիչ
հայտերի
թագուհին
իսրայելական
արտյոմ
##գոյն
խելամիտ
##տությամբ
հնչող
մերժվել
բարձրացված
առաջարկությունները
ձեռնամուխ
աշխատեք
կրօնական
ճտպ
պրակտիկան
այցելած
պտուղները
ծառայությանը
##բերի
##վածության
պետութեան
մեդալակիր
սերտորեն
տրվեց
##արյան
ուղղութեամբ
ապ
##եայ
ռեժիսորը
քսանը
բանասիրական
##րք
թրամփին
լգբտ
ծովը
հույսեր
որոշի
մասիսի
նոտարական
դպրոցից
ճգնաժամ
ոգով
ընդգծված
աչքերին
երկուսից
##ստանում
զանգվածի
արդիականացման
կրճատվել
քահանան
##ցիկ
ամբիոնից
թռիչքի
հավատի
պայթյուն
կանգնեց
կասի
վիրավորված
ութը
վնասվել
վրեժ
##մունք
հույն
##ցուն
համաժողովրդական
##գերի
թռչում
սաների
բազային
բռնությունների
ծովում
ամրապնդելու
դադարեցրել
հանքավայրի
մինասյան
ըսած
կնվազի
հրավեր
համապատասխանող
հորիզոնականը
փուլին
մտքում
ունեցվածքը
վերանորոգում
տոնում
աղբի
##եցվում
ինքնասպանություն
##գրերի
հանձնեց
ճնշող
հաջորդում
ստացող
հայագիտական
ծաղիկների
սիմֆոնիկ
##շված
##ւան
##ացիների
ջրամատակարարման
ուսուցումը
ազդեցությամբ
բոլորիդ
խաղն
պահվածքը
ցույցերի
բեռնատար
խաբել
ընտանիքներ
մեկնեց
իրանցի
բազմաբնակարան
արարքի
արտահայտություն
ֆորում
##ատներ
որդեգրել
եպբհ
որոշեցինք
փաստով
մաքսիմ
մեղադրանքները
##ոլոգիական
ձգվում
անհատույց
ռեյտինգային
բերդի
##ղման
կարեւորության
մահմեդական
կառավարությունից
##ղով
որոնում
ամուսնանալ
կարգավորելու
##նգի
մեծն
աննկատ
ընդունելություն
ծանրության
ներկայացվեց
ուղիներ
ուղեղը
բողոքների
հաստատություն
հրապարակումը
քվեարկությունը
ճշտել
սաստիկ
ադրբեջանից
պարտավորություն
քաղաքականությունից
գիտությունը
զգացմունքային
##ությո
շրջանավարտների
մյուսներին
ուղղեց
զնա
կգնա
հիշողությունը
գործերում
կազմակերպությանը
դատելով
հավաքածու
հույսով
բարին
դրեք
նամակի
հետեւողականորեն
հաշվարկվում
ձկան
բաժնետոմսերի
բաղադրիչ
կստացվի
##ակցի
թաղված
նշանը
անփոխարինելի
բաբլոյանը
օբյեկտի
համենայնդեպս
ալեքսանյանի
իրագործել
դեմք
շրջանակի
դիրքեր
նկատենք
ալկոհոլային
փախել
վարորդները
ազդեցությունն
սեփականությունը
քաղաքապետարանում
հրապարակը
ասատրյանը
դատաքննության
զանոնք
միությունում
ստացվող
ֆեյսբուք
##արկել
գազը
##յայի
դատավորները
պահվող
տարրերը
ջուրն
աուդիտի
զգացի
խթան
ռուսաց
ֆակուլտետում
կոչը
գրեթէ
լուծումների
##ղեն
պարկ
ոգեւորված
##ավար
##ոնական
գոտին
շնորհիւ
քում
կանխատեսել
արաբ
##ենց
որդեգրած
բնակիչը
գնահատելով
ներգրավելու
հուզիչ
մնացականյանի
##լոն
արքա
քննադատական
##րուի
գործոններ
մոխրագույն
##արանների
բախտը
հինգի
ստույգ
ամսագրի
լուծումները
կայքերի
մայրաքաղաքը
պատճառում
արական
գործերից
ամէ
պատկերի
անգլերենի
քրիստոսին
առաջնորդները
փորձից
դարձաւ
պայքարող
վիզաների
շահույթ
գումարով
երկրպագուներին
հասկացավ
տեղադրվում
##ատը
##ռման
երեսունը
իշխանությունից
սխալների
ընկնել
անպատասխան
երկինքը
հարության
րող
##թն
մոտեցման
տեքստի
շարունակվող
մաղթել
փոփոխություններով
թափվում
էականորեն
տներից
##այով
խոսելիս
նիստերը
##ռված
հովիվ
կահույքի
հանձնաժողովն
կենտրոնացված
խան
հայրական
հատոր
ուրույն
##չներ
աշխատողներին
վճարված
շների
ոլորտները
սնանկության
անդ
կենդանու
մայրական
միտումնավոր
այրվում
լավրովի
կշարունակվի
##ցային
ամսաթիվը
սահմանափակման
գույներով
պայմաններից
անվանակարգում
անվտանգությանը
այցելեցին
հատակը
եգիպտոսում
եղբայրներ
ճյուղերի
##չությամբ
խօսք
փաստաթղթում
լռության
յետ
մեծացնել
կետերում
մեթոդներով
անձնագիր
թորոսյան
արդարեւ
##սար
տրամադրումը
փառատոնին
նվազագույնը
##տոնի
տուաւ
բռնցքամարտի
գործընթացներում
իմանան
նկարագրված
մեսսին
տեսնես
տպագրվել
թվեր
##ծեն
##ծին
հեռախոսային
սեբաստիա
գործողություններն
կորոնավիրուս
նախաձեռնած
եռամսյակում
տեսան
մռայլ
##կումը
հեռվից
պատշգամբ
##ագործության
պատկերազարդում
վստահված
եվրոյի
աշխատավարձերի
գործողություններից
չունեին
ստատուս
խար
կաթիլ
վերցրած
շնորհվել
հանդիպմանն
կներկայացվի
հայտնելու
##քսը
ամերիկահայ
##իզմ
մարզիկների
փոխադրման
##ավանի
ջերմություն
եռակողմ
կայացված
թեմաներ
հոգատար
ժամանակահատվածը
##ցրած
պետքարտուղար
արարողություն
փառատոն
չունենալով
նայելու
վիքիպահեստ
քրիստոնեության
##րությամբ
կոնյակի
կուսակցությանը
վաճառելու
նվազման
տառապող
արտագաղթի
պատասխանն
##պոլի
սթափ
##լերի
հավաքների
ծանուցում
ռեժիմ
վայրերի
գլխով
քաղաքակրթության
ոմն
մտնող
կհաջողվի
պապիկյանը
պարը
հայտի
մեթոդական
##րյան
անբարենպաստ
լրանում
ժամանց
պալատ
ճամբարի
նստեց
##հը
կարողությունը
ձեւակերպել
հայրենասեր
որոնման
##կովը
շանս
համակարգչի
դռներ
այսուհետեւ
տաթեւ
կամենում
##րանը
կտրված
##ոնում
թիմն
քրոնիկ
ավագյանը
շունչը
##սերի
պատված
աշոտյան
տեղավորվում
հիասքանչ
վերականգնումը
լավագույնը
ազատվում
լիցենզավորման
փոխանակում
հերթապահ
##կող
ազատական
տարածելու
քանդել
սպանելու
փակելու
վաչե
##րերը
երեսին
մրցույթների
գետերի
պոլ
հետխորհրդային
սնվում
զինծառայողները
պտղի
վիվասել
##գրման
հիշեցնել
լոր
ծագումով
ալիեւ
բախումների
##անանք
թրամփն
##ասը
##ցրին
հատկանիշները
աբրահամյան
ընդհանրապէս
դրամաշնորհային
հրաչ
ազգայնական
համերգին
ափսոս
դերասանի
##աբանություն
բուժական
պուտինն
գնացինք
պայ
ուսումնասիրման
արժույթի
հետաքրքրվում
ներկայացուցիչներից
նմանօրինակ
մտավախություն
ընթացակարգի
կրծքով
հետապնդման
ժյուրիի
վատը
##զյանի
միամիտ
պուտին
տղաներին
եռամսյակի
երեկոն
պարում
##երների
##երկու
բանաստեղծական
##ստները
գիտակցությունը
ուղեւորների
պատկերացումները
քաղաքապետին
աղոթում
եհովան
մրցակից
չլինել
##ղերը
հենրիկ
վիրահատական
զոհվածների
իրավապահների
կինոփառատոնի
ամրապնդմանը
իրինա
հիվանդանոցից
մեկնարկած
##ավայր
չափերը
զարգացումն
ոստիկանի
##լոր
ուրախանում
աննան
հոդվածներով
օգնի
ձեռքբերումները
##յուր
խոչընդոտել
նկարների
օբյեկտ
կմեկնի
սկիզբն
ակումբների
մատուցելու
լքում
գործոց
շրջանակ
շփումը
տնտեսությունների
##րկի
##նման
գործից
կներեք
ուսումնառության
լիբանանում
ծառեր
նավի
սկսեցինք
առաջարկություն
տեղումներ
լուսավորության
համլետ
ստեղծագործություններ
վարպետության
արժանանում
կաթը
խնամքով
սեփականատերը
վիրաբուժական
որոշակիորեն
##յթը
ելույթներ
ելույթով
նամակով
հաղորդումը
որակել
դիրքերում
խփեց
լինելն
պահանջարկ
ընկալել
աստվածաշունչը
ավագանին
աշխատակիցը
գրավելու
##ղան
##որների
սիրող
կետեր
գներով
հիմնադրամին
##նս
գրուպ
լին
##ղված
սահմանափակել
քարդաշյանը
եկեղեցիները
հոսքի
շինության
պայքարն
լեգիտիմ
հետաձգվել
փորձով
##ուելու
սովորողները
հայաստանցի
թվաց
եվրոպացի
ստեղծագործ
ամերիկեան
##ջող
հեղաշրջման
յստակ
դառը
##սյանը
դահլիճը
պատկերներ
##այլ
չհաջողվեց
ավտոճանապարհին
համայնքներ
շրջակայքում
եթեր
հեռ
մտնելուց
շինարարություն
շրջանները
հանգամանքով
դեպքն
ծնած
օգտագործված
##սուն
եղանակային
աբրահամ
առա
##ծեր
պլանավորման
##ացին
մոլդովայի
անկեղծորեն
պատվերով
ավարտի
կլիմայական
ավանդույթների
վաճառվել
թշնամուն
միջնորդության
շուռ
ակցիաներ
կամո
հարթակներում
##գետ
արտառոց
բժշկին
ոստիկաններին
վկան
հաշվառված
##ողին
վիրավորներ
##ատոր
##քել
երազել
կուսակցությունն
շարքերում
համագործակցությանը
տրվի
քարտեզի
ըլլան
մշակոյթի
մխ
անտեղի
հանդիպող
նունե
հնչեցրած
մատուցած
##վություն
ալիկ
էջերը
հետքեր
##արկի
##պեր
կուսակցությունից
շեշտելով
յոթի
սպառազինության
##գեր
բեռլինի
տարեդարձը
քարեր
ալավերդի
շարքից
երեկոյեան
աճուրդի
բռնությունը
պահերին
##կանի
բաղկացուցիչ
քաղաքացիներն
կռվում
քիմիայի
գերմաներեն
դասավանդել
ծառուկյանին
պարկի
շեմը
գրառումներ
ուղեցույց
գույների
լուկաշենկոն
վերածննդի
##տալ
հանգստանալ
##տյան
արմինֆո
համաձայնեցված
ներին
մակարդակից
վերահսկիչ
հավելվածի
տաթեւիկ
ձեռքբերում
պրակտիկ
##իոն
ձմռան
##զյան
երկրային
հաճախել
բնակություն
երկրաշարժից
ձիու
հանցագործությունը
հետեւեք
մեջքի
ելույթները
##ագրով
զարգացումներին
նախաձեռնությանը
##ատունը
հիմնվելով
##վորում
առաջարկությունների
կիրառելի
անկյուն
ժամկետների
մեծանուն
##լար
ընթերցել
չեմպիոնի
տեսնեն
կուզեի
վիրավորել
մարտահրավերները
ձա
մասնակիցներ
##շյան
##ոնին
կնքելու
արգելք
արձանագրությունը
կայանալու
գառնիկ
##դիր
##աբնակ
պատվո
գինին
տերն
աի
հողամասի
քարտի
կենտրոնացած
ներքեւում
պասիվ
ասածը
ատամները
դասերի
ծնողներ
խելոք
վարույթն
հավատ
##անդ
բանակն
լսեց
շարքերը
իրանք
գյուղացիների
##ապ
փաստն
##ավուն
կանոնադրական
պարզաբանումներ
ազատված
ստանձնելու
իրականացվելու
##րար
արգելոց
բացահայտումը
միասնության
աթոռը
թեկնածուներ
անարդար
կնքվել
պատուհաններ
հավասարապես
##ություններից
վերակենդանացման
ընդմիշտ
անջելեսում
ծանոթանում
երկաթուղու
հանգամանքին
սիրողական
ցավակցական
##արտ
ռուսները
սրտին
մահապատժի
րից
##ավորող
հատկանիշներ
քաղաքաշինական
գլխում
##խեն
մտնի
նշանակալից
ծառայությունն
համբարձումյանը
##կետ
բարսեղյան
ծրագրերն
իմանալու
հայտարարությունում
երեւույթներ
օրի
##ագրությամբ
լուծվել
շենքեր
ամենախոշոր
զեկույց
լեռների
հաղթահարման
հատվածների
##ագրությունը
ծնողներն
հանցավորության
թրամփ
դպրոցին
բի
ցանցեր
կառուցապատման
##ռած
ռուստամ
ատամների
պաշտպանութեան
պատանիների
որոշիչ
##ականների
հսկիչ
շնորհավոր
վաշտի
վարդանանց
առաջադեմ
ավելացնելու
լոռի
##յցը
առումներով
ամենայնի
կանգնեցնել
դոկտ
մո
կանոններով
յաջորդ
##անայի
արժողությամբ
գոլային
հայտարարությունից
##իկա
բասկետբոլի
խաղաց
անբաժանելի
տեւողությամբ
մարդոց
հարթակում
##ուլի
ամաչում
կղզում
ռուզաննա
հայրենակիցներ
շահել
ֆիֆա
ժպիտով
կողքից
լսելի
կազմից
հակիրճ
դատաիրավական
անհանգստություն
վարույթում
տաքսի
կուզենայի
ներկաները
զարդարված
##ույթի
աղբյուրներ
կազմակերպիչները
միջավայրին
##հա
վայրերից
անհամբեր
գործիչը
տեսլականը
առաջադրանք
դարպասապահ
կոնգրեսը
ասիայում
գեղագիտական
ասպարեզ
հասկանան
առթիւ
սերմերը
պոլիս
տասնմեկի
ցուցադրվում
գործառույթներ
##տեմ
համը
հավատացեք
նկարիչը
պատժել
բացատրական
երկրաբանական
ձե
##ուրը
ֆիլմն
թոքերի
ծաղկում
կրոն
որդիները
դիզայնի
հակահայկական
ձգտումը
փորձագետներ
դիտելու
ներքեւի
ղազարյան
մասնաճյուղ
արձակելու
գլխավորել
ղեկավարությանը
չարաշահումների
բաւական
խուճապի
օրուան
մաքրելու
սահուն
հավաքելու
ուսուցչուհի
##կներով
ճնշումների
գործարքը
ջերմուկ
պահեք
սովորություն
անգլիա
##պել
կրթահամալիր
ղեկավարման
##անով
հաղորդակցման
պրակտիկայի
ջրից
ձեռքն
տաճարում
##եցնելով
պատրաստակամությունը
սկսենք
##իտ
##տության
քեզնից
##թոնի
հակամարտությունների
ավտոմոբիլային
հաօկ
##կվի
բաբկեն
##ացվեց
փոխարինում
##կյանը
բարեկեցության
դավիթը
##անային
կարողացան
մեջբերում
քայլն
երկուստեք
##թային
խսհ
կենտրոնանալ
ռոք
արեւիկ
լսեցի
ուժգին
ընձեռում
հասցված
վկաների
իրավաչափ
կառավարիչ
կատարելագործման
հաշվել
հաստատություններ
ավանդույթի
կբացվի
նիդերլանդների
զանգել
վարակվել
ճանապարհներ
##մո
կանգուն
դժվարանցանելի
թաթուլ
կավարտվի
ֆոտոլրագրող
կապող
հանրաքվե
արամի
արդարացված
միջխորհրդարանական
աշխատատեղ
անավարտ
մադրիդյան
##ադրությունը
անաչառ
զար
թեմաները
##ծեք
աղոթքի
հափշտակել
շրջանառվող
քարոզարշավը
ամրոցի
կատարումն
##լեան
աֆրիկյան
զիջել
ժամով
քվեարկությանը
անտեսանելի
հայեցակարգի
շերտ
բողոքարկման
սոս
պատկերն
էրդողանին
նախարարութեան
եկեղեցիներ
լիտվայի
լուծված
կրծքի
դրույթներ
երթեւեկելի
տեխնոլոգիաները
բանակային
առանձնատուն
գիտակցել
ֆուտբոլիստներ
քննիչը
##առության
մեկմեկ
##դոյանը
##շած
նախապատրաստում
անհետ
զինք
նորածին
առարկաներ
##շտի
կատարվի
շահումյանի
##ւս
ցույցեր
ապարդյուն
զսպել
իիհ
երաշխիքներ
անելը
կապվում
հպարտանում
ապագային
յուն
լեռներում
լիճը
ներկայացնեն
մանրածախ
##ացուցիչ
բնակչի
պահանջարկը
##եյան
հարյուրամյակի
նվազեցնելու
ժողովածու
միեւնույնն
աղբահանության
աֆրիկայի
հիվանդությամբ
##ադրել
##ացն
գործադրում
##չորս
նպաստող
ողբերգության
աշխատանքներով
կռվի
ավարտում
իսպանիա
հրապարակավ
շփումների
տարեցտարի
հատկացնել
հյուրն
տարուան
դրսեւորումները
համայնքները
##ձը
խաղաղությունը
ճամբար
##ողության
ակադեմիան
պլանավորում
թվալ
թորոսյանի
հեռախոս
դեսպանատունը
հեռանկարներ
գործունէութեան
հնչեց
դասավանդում
##տայի
նայենք
ամենահին
##ւոյ
խաղաղութեան
##վայի
հաղթանակով
ժամանակները
քսանչորսի
դասակարգման
բարեկեցիկ
ընտանիքից
շագանակագույն
պատճենը
լիագումար
հոգեբանություն
հիփոթեքային
վեճի
ցանցում
փաստաբանները
գործառույթը
##ողներին
բարեկամներ
հայրենակիցների
միա
##վերը
ինֆորմացիան
կորել
մեռնում
հատել
##ցներ
միտքն
##իթ
##ղել
հայտարարություններին
կստանաք
նորը
շեմին
արտահայտություններ
հեղինակության
##տեց
պիտակներ
##ովան
անանուն
քաղաքները
մշակելու
չգիտեր
վերարտադրողական
##դիի
թերթում
չափավոր
##թայի
կղզին
հատվածները
ռազմավարություն
ռեկորդային
ռիսկեր
միմյանցից
մեղադրյալի
սցենարիստ
##զվում
շերտը
սատանան
կիսել
կիրառումներ
հանձնախմբի
խաչատրյանին
առաջարկների
դանակով
հիմ
ձեռնարկած
տեսքի
բնակավայրը
զույգի
ծնողի
ծնվեց
ւր
##ոյց
լաբորատորիայի
մրցանակին
ակնառու
բռնկված
ընկերություններին
համա
հովսեփ
պատմութիւնը
դաշնակցությունը
տիկինը
գոյութիւն
հիշատակ
ջնջել
դիտորդների
միացում
դպրոցականների
հիվանդներին
խմբագրական
գնային
հարյուրամյակին
զուսպ
կհանգեցնի
ապացուցված
արժանացած
մոռացեք
տարածություն
տեսողական
հունգարիայի
ողջունեց
անհետաձգելի
փողերը
դաշնակցութեան
խումբն
մանկան
##մով
##ազարդ
ունեցվածքի
սիրելիի
##դամ
բնութագրվում
գործիքները
խախտումը
գործարք
հմայիչ
պատմությունները
վերնագրով
իջել
կրնան
պատասխանատվությունից
##ցք
անձրեւի
ներգրավման
դարձրեց
դոլարը
փուլերում
##արյանի
ավանդույթ
հարաբերության
չեղարկել
##ականը
մարինե
բնիկ
##յե
էնպես
նշանակվեց
ռումինիայի
ռաջ
##ռնում
թումանյանը
ժամանցի
կատարմամբ
ֆունկցիոնալ
մոտիկ
##ուան
միավորների
մետրոյի
##ցուած
##հու
երէկ
միշել
մտերիմների
##ատուի
ենթադրենք
դրամից
նշեցին
շամշյանը
մակրոնը
ըլլար
բն
ըլլալու
առաքելությունն
ֆրանչիսկոս
##ակցութիւնը
հետամուտ
հիշատակվում
նկատվել
հաշվարկային
միանվագ
##բանկի
ինֆեկցիոն
##ագրային
շարունակաբար
ամյակին
գյումրին
սցենարը
աստվածաշնչի
մանդատը
ժողովրդագրական
վեցի
##տոր
##ֆիկ
բովանդակություն
##այնության
նկատելով
դասարանների
հայքի
վարկանիշային
##նական
ամենուրեք
բացատրեց
ուղղությունների
ունակությունը
կերել
դժգոհում
բանտ
հետզհետե
մասնակցությունն
վարկը
արժեքով
հաղորդաշարի
##մե
##տուր
արմենիան
##աքար
վայրէջք
եգիպտական
փիլիսոփա
ամռան
##ջա
ձեւաչափը
տրամադրած
առաջացող
ծիսական
սեյսմիկ
գար
թթու
##ունակ
հարսանիքի
ատենապետ
##դանի
ձեռքբերումների
որդիների
##ցիր
խփում
##ցությունը
աջակցությունն
վճարումների
##ցմամբ
գրանցվում
զորամասերից
լիցենզիայի
քննարկվեցին
զավակ
կոորդինատներ
համագործակցությամբ
նվագախումբը
ստորագրման
հավատա
##գայի
##ագրող
միակն
լուծարման
կատալոնական
ժողովն
ոստիկանությունից
սոյն
մասնագիտությունը
շաքարային
գիտ
պաշտպանների
ակտիվիստ
ընդհանրական
հրթիռային
առաջարկելով
համախառն
մեղքերի
կոմերցիոն
ճակատ
մտածելով
մկանային
լուծվի
բնույթով
մասնագետներին
խոստացավ
գտնվելով
ինքնիշխան
վեցը
թողարկման
երթեւեկությունը
մեղադրող
զինամթերք
դարձրեք
կատուն
հաշմանդամության
մոտեցումների
պատրաստակամ
##դերի
դատավճիռը
մելքոնյանը
##ոցներ
ահազանգում
մարտահրավերների
##ւող
կենաց
լհկ
փոքրիկի
գրադարանը
սոցցանցերում
շահագործումը
ռուսների
##ադ
կրեմլի
հակամարտ
##միկ
գրադարանում
կանոնադրությամբ
թուականի
խոսակցությունները
մեն
խուլ
կարտոֆիլի
մտքին
եկամուտը
բացահայտված
լեռը
միջամտել
##ցիներ
գազային
սյունիքում
արդեօք
պատմութիւն
իսպանացի
հոսպիտալացվել
շարունակվելու
մեղր
քսանամյա
##դներ
զուրաբյանը
հայցի
հանգամանքից
կամքին
կանեն
օհանյան
աղբը
անդին
սերբիայի
##ածը
թիւը
ուսուցիչներ
պոեզիայի
կսկսվի
հասարակությունն
հերթով
խաչատրյանն
խոսքերն
մտածեց
մեղադրանքներ
քրիստոնյաների
աջափնյակ
առաջվա
խորքում
չափանիշները
քրիստոսը
հունաստանում
ռակ
կենդանիներին
կուլտուրայի
##սված
շահառուների
հատկացրել
##կայում
աղոթք
հատկացվել
##իների
##ղին
ավիացիոն
զուգընթաց
արաքս
իմացա
մարտավարական
բջիջները
անող
տուժածներ
կատարվածի
ներդրումն
ուժերից
փոստանջյանը
երկօրյա
նյութերից
տասնամյակ
արանքում
##ագիտություն
ընկերն
իջեւան
իրարու
մատուցող
##ժամանակ
##ադրվի
կործանարար
այսպիսին
կայունությունը
մեկուսացման
արթնանում
դիմած
##սով
համամիտ
կմնան
երաշխավորում
քնելու
նիստերին
##տվել
դիմադրության
իրականացվի
տարիներից
թաղման
պայթուցիկ
վրդ
գծերը
մատենադարանի
դատավորին
հեռացվել
տարիներուն
հեռախոսի
կարդացի
շփում
բաղդասարյան
գծերի
զինվորականների
բեն
լսի
պետություններում
մտան
ատոմ
դասախոսների
պաշտպանությանը
պապին
հու
մտածի
սը
դիմակայել
համամարդկային
խնդրով
##բնակ
դեղեր
ինֆորմացիոն
շերտերի
խոչընդոտներ
մարտունի
վայելող
պատը
համեմատությամբ
գրություն
համառորեն
պրեմիերան
քննարկվող
մանդատ
ամուսնանում
հիվանդները
չունես
ցանկությունները
զեյթուն
փաստաթղթերում
դնի
ըլլալով
աղետալի
թագավորությունը
##ամասում
կով
##րայի
կոալիցիոն
պատասխանելու
ագրարային
առաքման
անոթների
բանջարեղեն
միջնորդ
մաթեմատիկա
հրապարակեց
հռոմում
արվի
թիրախային
լռություն
հիմնարկ
առաջադրելու
նգն
չունենա
աղյուսակը
դրանցով
մեկնաբանելով
սոչիում
անցկացվելու
նկարահանման
կղզի
օտարման
գիտաշխատող
կասեն
փոստի
պարտադրել
եղե
ոստիկաններն
ֆինանսավորումը
արարք
անցումը
մարուքյան
##ացեք
##իում
անուններով
ծրագրից
փոխանակել
##ացիները
անտառում
արտահայտելու
ծրագրերից
հասնելը
միջամտություն
անօդաչու
խոչընդոտելու
պաշտպանները
րեն
առարկաները
տալուց
##ուեցան
այվազյանը
արցախին
##կվող
հանդիսատեսը
##լոգիայի
դատաբժշկական
աբխազիայի
սուսաննա
էջերում
կազմակերպական
սեֆիլյանի
կստեղծվի
բարեփոխումներին
նշանակումը
մորս
##զն
##ողությամբ
անոթային
արտ
##պեն
անչափահասների
դիտարկման
բբը
մտադրություն
ոստիկանը
բակ
զգաց
սուրիկ
պարանոցի
իմունային
մարել
ավտոճանապարհի
երգչախմբի
մայրիկի
դատարանները
դիրքորոշումն
հայեցակարգը
ռացիոնալ
սահմանակից
փոխըմբռնման
իրավագիտության
չափանիշների
##կվեն
հայտարարեցին
տաշիր
հեքիաթի
փոխարժեքը
ներկայացնելը
մկանների
##ստանը
աբու
հավասարակշռությունը
պարբերականը
զոհրաբյան
յուրացման
փոխարինող
ագրեսիայի
եւն
##ֆին
թղթակից
հաճախում
մրցաշարը
երեխաներից
գոռում
նորոգման
##լյա
զգուշացրել
կազմակերպվող
հարթության
##հատ
հռոմ
հոյակապ
մրցանակների
խոյ
կազմակերպությունում
միտումները
կենսաթոշակների
ջերմության
մեկնարկի
ծավալում
պտուղը
անվ
բանակցություններում
տեսակետները
հարվածը
հողում
երկակի
ամէնէն
այսօրվանից
քաղաքներից
արձագանքման
հայրապետյան
հերոսներին
սրբոց
կետերով
վիճակագրությունը
բանջարեղենի
ժամանակներս
մեդալի
##ախնդիր
##երտ
անվանվել
հետքերը
պատկերները
քրգործ
փոխտնօրեն
առաջարկվել
որսի
գործարանում
կանադայում
հայտարարություններով
##կվեց
ընկնող
միջադեպ
նայի
պատրաստության
ահաբեկիչների
զանգ
նավթային
բանակից
ճերմակ
##ողություն
##ռան
լուիս
գլուխն
բերեն
իմացեք
##մերի
կարողություն
դել
մակարդակին
օգնեց
##խան
##գիծը
##չները
դեմիրճյանի
##ջին
դավթյանի
բազան
բաժինների
սակագինը
##գիրը
արփի
հատկություններ
առեւտրատնտեսական
աֆղանստանում
այսօրտաս
##ոնյան
մտահոգությունները
արձանագրությունների
փակվում
##կինը
շարժմանը
զրուցակիցները
կազմած
##ադրական
հանգստանալու
##ահ
նավը
զրոն
ամրոց
դարերում
կգտնեք
ավանդաբար
հնչեցին
հեչ
վրաստանից
պետություններ
գնահատվել
համոզում
օրեցօր
կույս
տղաներ
մեծամասամբ
##ատում
##ավորները
նպատակներից
վճարումը
ամենագեղեցիկ
ավարտեց
գրվում
կգործի
մարդուց
հավակնում
##ոնային
##կէ
պատիվը
բողոքները
ընկալումը
թշնամական
փոխեց
տեսուչ
գիտակցելով
վերցնելով
##գված
տապան
ձեռնարկության
թարմացվել
հակառակն
փոխհարաբերությունների
մարզը
մարզիկները
բանկերը
մնացականյան
քաղել
##եանին
կարսի
կոնֆլիկտի
ձի
դստերը
էջից
չկային
որոշումից
թույլատրել
##ամի
ստվերային
մէկն
##ծող
ավտոմեքենաներ
ռեսուրս
վարքը
փորձեն
##րկում
բուհերում
ասկերանի
զգացողությունը
բազմամյա
բալասանյանը
լռությունը
աշխատելով
տասներկուսը
##ատեր
տէ
բարեկարգման
##տացել
##պիսի
պատերին
հայտնվեցին
հարաբերություն
հարուցելու
հովհ
ալավերդու
ակնարկ
մոնիթորինգի
սկզբունքորեն
տարված
##ենտը
հեկտար
մահացության
համբերատար
ազատազրկում
էմանուել
համագումարը
առաջացումը
պարտականությունը
անվտանգություն
բարձրաձայնում
##յության
##բերդ
##յից
բեմի
##ցութեան
տիտղոսը
լռել
հիշեցի
հարիւր
երեսունից
բեռների
խնձորի
խրախուսում
ոտք
ափ
չորսի
գրեք
##քներից
լվացման
ճոխ
բյուջեով
իսրայէլի
հալէպի
վերեւի
ժպիտը
լայնամասշտաբ
պարտքն
ձոր
կկարողանաք
մարզիկ
թոյլ
խոհանոցում
վստահեցրեց
քաղաքապետարան
լրացնում
ներխուժել
##անալով
շրջանառությունը
##ցություն
բերեք
քաղցկեղը
միգրացիայի
վնասներ
շուկաներում
ուրիշները
պայմանավորվածության
կրեդիտ
հիմնախնդիրների
հաջողվի
թոփ
##ղային
պահպանմանը
##դե
հանքարդյունաբերության
##իկայի
##վիր
լուսանկարիչ
սպառնալիքներ
արեւմուտքը
էնտեղ
հաշվում
ընթացակարգը
վնասների
ազատագրված
վավերացման
##սիայի
##ումով
միջգերատեսչական
նախագծման
քսանհինգերորդ
բրազիլիայում
յայտ
բավարարվել
մոտից
##աններ
լենինի
նովա
բանակցել
կահավորված
կեսերին
##սման
ակտիվություն
կոլեգիայի
կկազմի
հրապարակախոս
սեփականատիրոջ
ստացա
տասնամյակներ
քսանչորսը
պայմանավորվածությունների
##ապահ
ազատությունից
գումարած
չկատարելու
##դյանի
##ուհուն
սովորեցնել
զուր
մեծածավալ
արտոնություններ
բագրատյանը
խորացման
չափահաս
առաջի
բախում
ուսումնասիրելով
խանգարումների
անթերի
ընթացակարգով
հակառակորդին
մոլորակների
##ճարի
մերժման
դարավոր
անկայուն
գործողություններով
պաշտպանիչ
արձանագրությունները
գալստյան
ասուլիսին
հետախուզում
բարաք
փխրուն
վերա
ձանձրալի
վնասվածքի
##ցս
##ադրվեց
##գար
թուր
հագնում
օգտատերերի
զայրացած
բարելավմանը
արտահանումը
կռվել
վճարվում
փողոցից
միացման
գործընթացներ
երկուսով
սեքսի
գնացող
րենց
##կության
##շերը
ինչում
վերադառնա
բանակցություններին
ազգագրական
համեմատում
որակով
արժանապատվության
հաջողությունները
նվաճեց
անվտանգութեան
զորամասում
խանգարումներ
իսրայելում
ջրերը
աշխատավարձերը
կողմնակիցները
ժաննա
դիմացի
կիրառված
##թները
կոչով
աստղային
մեջը
շնորհավորելով
բողոքել
##յրի
կադրերը
երկաթյա
շենգավիթի
պահոց
հիմնարկներում
ձեռագիր
պղպեղ
սադրիչ
արխիվային
##ամետ
հետաքրքրվեց
հարձակվում
վիրահատություն
##փը
##անոցում
##ծելու
##ամարտում
իրադրությունը
իրողությունը
կազմակերպիչ
մաշտոց
##ովն
##ադրութեան
արդարությունը
կործանման
ֆունտ
հետեւեալ
ստորագրում
##տուն
տարաձայնություններ
քոլեջում
կինոռեժիսոր
կազմվում
հանրապետությունների
ներմուծվող
աջակցող
աշխատակազմ
պատահարի
երկարաձգել
հանձնարարականներ
միջոցներն
բժիշկներ
ախտորոշում
##աբ
##թոնը
յուրաքանչյուրին
նազենի
հովհաննիսյանին
մատուցվում
##արկվում
մոնիտորինգի
շարժումների
պոլսոյ
բալայանը
կատարեցին
փորձնական
նորովի
##անոցի
անգլիայում
ստիպեց
բառն
կրծքավանդակի
հարստությունը
սեդրակ
ափի
նիստն
տրանսֆերային
վարձատրության
արձակուրդի
բաղադրիչը
թողարկված
վիճակագրություն
հարյուրամյա
##աշ
##ռների
սթրեսի
որոշված
փորձագետի
բացատրվում
կապիտան
աշնան
միավորներ
##ովին
վեոլիա
##յել
կառույցներին
բանաստեղծությունը
կառուցվող
ձեւակերպում
##ագէտ
արատավոր
տնտեսվարող
գավաթը
կոստանյանը
մեքսիկայի
##արվեստի
բուժիչ
թագավորություն
խոսակցության
բնածին
զբաղեցնել
##աա
ըսել
##գերը
##դեմ
##ունքը
##պերի
երեւանն
առաքել
##ոյանն
##քան
աստվածաշնչյան
հպարտությամբ
բացառված
սակագների
հավիտենական
շոգ
հացադուլ
մրցանակաբաշխության
##այան
մրցակիցը
բնակիչներն
պարտավորություններ
դիվերսիոն
##եդ
երկիրներու
##ենու
բանավեճի
կհայտնվի
խու
պարզում
առաջնորդվել
կիրականացվի
կինոն
տարածքին
նախնիների
ձկների
շերտի
զգալու
նչը
եզրափակչի
իւրեանց
սեփականատերերի
դրույթը
երկարամյա
գրառումները
ալիեւին
հռիփսիմե
հրավիրեց
աշխատած
##լման
թիկունքում
թարգմանությունը
իգական
օբամայի
ավտոճանապարհը
տերմինը
միավորի
շարունակեն
վեհ
անգելա
երեքից
առանձնահատկությունների
դանիելյան
հանրակրթության
հեռացնելու
փողոցներ
##չն
բագրատ
ցանկությունն
դիմավորել
դարաշրջանի
քննությանը
##ամյակին
թագուհու
բավարարելու
գանք
մասսայական
դատավարությունը
հեռացնում
զինծառայողներին
կրոնը
չտվեց
տասն
##անյանի
դիմեք
իրավաբանների
կանխատեսելի
տարածքն
տարանցիկ
քննարկումներին
տեղամասում
##գվել
մարմնով
##խմբի
##ուշ
եղանակին
խաղացողների
խթանելու
ավազակային
պատճառելու
ցում
հումքի
ձեւն
մահվանից
ցերեկային
զենքով
խմ
վատն
հասանք
ուղարկվում
##ակցություն
դժգոհությունը
կնքման
շարժումները
պատվով
վերցրեք
հիմնվել
գործակալ
կեան
##որդին
արտգործնախարարը
լոնդոն
##շտում
դնթ
իշխանափոխության
մասերում
բողոքարկել
##նեին
անկրկնելի
ծնկի
դիզայն
խմբակցությունների
##ություններին
ամրոցը
անմարդկային
վիճելի
##մունքի
գործիքը
բույսերը
անմոռանալի
##յոն
գրքից
շփվելու
չունենալու
ընկերներից
հայելու
հեռացրել
գտա
գյումրեցի
##ետիկ
թռիչք
կուրս
##ցնեք
արսենալը
հետաքրքրող
թվացող
վիրաբուժության
##եյի
պոլիտեխնիկական
##ապատիկի
վկայակոչելով
օսմանեան
ճաշ
առաջացավ
մելքումյանը
##դվում
եվգենի
հակասահմանադրական
ճակատը
ֆոնի
##աշարը
##ոք
կսկսեն
նույնականացման
ոստիկանապետի
սատարում
շրջանակները
##նար
բարեխիղճ
թեկնածուներից
##ություններն
թարգմանության
գերիշխող
գոտիների
թագավորին
թիֆլիսի
քոլեջ
##օրինակ
մատչելիության
հրամանի
զեյնալյանը
ժամի
ամրագրում
իշխանը
վաշինգտոնը
հարվածի
հիվանդին
լեհաստանում
մեթոդի
##ովկա
թափով
մարտիրոս
հաստատմանը
աշխատակիցներն
խաղաղապահ
##ատները
պետերբուրգ
##աստանի
թերություններ
հանգամանքներում
ապահովմանը
հետապնդումը
##ատեսակների
յառաջ
նոյ
##կներին
նվագում
պնդելով
##բում
ականավոր
զանգեզուրի
խոսակցությունը
նահանգներու
ուղղության
##շե
սպառնալիքների
րէ
կաթողիկէ
ջերմուկի
##չա
կառույցներում
պայմանագրերը
անկախություն
կարեւորվում
ծագումը
ամեկ
շավարշ
##տակի
բանալի
ծառուկյանն
կատարելուց
հասարակությունում
##ցուի
պակասի
խոսելը
##էտ
ընթերցողների
կապանում
հորիզոնականում
պտուղ
սիրահարված
ծեծում
կվերադառնա
էսպես
մարմնից
##յութ
բարեկամների
սկզբունք
իշխանի
քվեարկությամբ
ընտրությանը
տին
ոչնչով
տներում
անդառնալի
անդրանիկի
հաշտության
սպենդիարյանի
ավարտ
պատերազմն
իրաքյան
պահած
կոչելու
նահանգ
##կարի
##ճառի
լիազորություններ
կասեցնելու
ցուցարարներին
վճիռ
##շն
##կայան
##յակը
գնահատումը
մրցաշարային
քաղաքագետը
##իւ
մարզչական
դահկ
ձեռնարկ
զարգացնում
սատանայի
անելիքները
երթը
ընտրությունն
##իո
մերկելը
ուսուցիչներին
անիի
խոսրով
պարզաբանեց
գմ
կանցկացվեն
նկարահանված
հաջորդած
հարվածում
կնշանակի
վերլուծաբան
ուրիշին
##անգ
##դարյան
գաղափարն
սարքավորումները
գրանդ
պատասխանատուները
գերադասում
դերակատարություն
հաշվառում
տարբերակում
սիթիի
հում
երկնքից
թեհրանում
մշակույթին
պատմությունից
առեւտուրը
ուսանողի
##զեր
##ովսկի
##քար
տոկոսային
##գոյի
եղբայրական
արձակագիր
կփոխվի
##ատես
##ացնեմ
ամսի
կերակրել
անկանոն
##ոլոգիայի
ժամանակներ
ծանրամարտի
քսաներկուսի
գաղափարախոսության
գործատուի
կտրած
օպտիմալ
##ոցում
աղիքային
հետազոտման
միավորել
դժգոհություն
ծանօթ
գյուղացին
պրակտիկա
պատերազմների
##շվում
դրսեւորման
մարկոս
տեւեց
ազատամարտիկ
քայլերն
ֆիլիպ
հոգուց
չկարողացան
վճռի
##ակետ
թեւի
կորցրեց
բեռլինում
երկրներն
##ջված
պարտությունը
ըլ
տողերը
ներկայացրին
կազմակերպություններից
հանցանք
պատուհանները
ծնողներից
քարտեզը
սահմանումը
ծննդեան
օվկիանոսի
անտառների
հրավիրելու
պարգեւատրել
##լած
հասցրեց
##շման
ռեկորդ
կոնգրես
##ենական
հիվանդություններից
պարել
քարերը
վճարողների
կողմերում
հարցազրույցներ
բուժօգնություն
##ացու
համաժողով
հյուսվածքների
հրաձգային
ուղու
##խոս
ընտանիքով
շքանշանով
հիմնադրել
յուրովի
##բեկյանը
բժիշկներին
իշխանություններից
կայսերական
կրակում
գործատուների
ուղիների
##նքը
##բաց
մեծերի
հազարը
պատրիարքական
##մային
խորենացու
մտահոգում
դեսպանությունը
գործարքներ
կալանավորման
կառավարութիւնը
մատների
ներել
պահանջարկի
փնտրելու
գործերն
##վածք
պարտատոմսերի
կալանավորելու
կողքով
##ղուն
գնահատականները
բառերից
պարտադրում
րոպեում
փոփոխություններն
##առման
##շէ
հերթը
պահանջված
կայցելի
պարունակությունը
հաշվարկի
հատկությունների
կետից
##ուցի
կայքից
առաջընթացը
բանաստեղծության
քսաներեքի
##րուած
##ապետի
##նոն
զավակների
շրջաններ
դինքի
ձգում
##զով
կարեւորն
ոգեւորությամբ
միացավ
փորձեցինք
##արաններ
շրջանից
##լանդիան
քսանմեկի
ադամ
բառացիորեն
հարգանքով
անկողնում
առավելությունները
##ախումբը
ղեկավարվելով
քսանից
##ացվող
կփորձի
լինեի
հեթանոսական
տրամադրող
##իններորդ
խորհրդատու
##եյ
ապացույցները
կորուստները
քարշ
հէց
լեոնիդ
մեկնաբանությունը
սփյուռքը
ասադի
ելենա
##հական
##սող
իրադարձություններից
մոսկվայից
##գծի
լատ
տույժ
փուլն
գեղձի
քաղ
ծածկել
ուժեղացված
ծիծեռնակաբերդի
կատաղի
պատգամը
##ռեց
տեսարանը
##իկների
##ղու
դեպքով
նիւ
հրապարակվում
արձագանքի
գոտիներում
կարտոֆիլ
կկարողանանք
հաշիվների
յունայթեդը
բրիտանիա
կիեւի
մադրիդ
ամսաթիվ
գծեր
շղթան
սեդա
գործակալությանը
դատին
միլանի
ասոցիացիա
բերքի
##լների
դերակատարում
պետությունում
անհանգստացած
կատարուած
##գիծ
գրա
ներշնչում
##ամարտ
լոլիկ
խոսակցություն
կիսամյակի
որոնողական
արմատներ
ինքնիշխանության
անվնաս
արմէն
տեղափոխված
##էական
արտադրվում
ղուկասյանի
պարետի
մերը
գնաճի
հաշվարկով
հազարի
տուժածների
##ադրման
գիտելիք
ծննդաբերության
կատարելը
պահքի
փոխգնդապետ
կառավարչի
ստորագրությամբ
##մյա
հաստատած
##ավորվի
ձեռքբերումը
տեղեկության
համագործակցությունն
հաստատվեց
հիսուսին
վերսկսել
##ույր
երկաթի
պրակտիկայում
##դրություն
գաղտնիության
##ունակության
առաւ
ինքնավստահ
քարոզում
վճռորոշ
ցուցադրությունը
##ովիչ
անանյանը
հոդվածն
ջերմությունը
վարդգես
վտանգված
տնօրինության
աբրահամյանն
իրադրության
ձեռքբերումներ
##ջել
այրել
աչքերում
##ագրվում
կոռումպացված
##րկ
եկանք
թոմ
աստղագուշակ
##ենան
##ուա
տուրիզմ
դերասաններ
նարեկացի
արմատախիլ
արվեստագետների
պատվեր
քննիչները
տոկոսից
##ույթը
փորձեցին
դրվեց
ակտերը
հնարաւոր
##լանը
##թել
մայրիկ
մանկուց
տեղակայման
տեղաշարժի
հպտհ
շնորհել
##աստան
փոխ
##գն
ընթերցողի
տեխնիկայով
զինվորին
ռիո
ֆրանսուա
խնձոր
հաշվետվություններ
խոսի
ուշքի
բազմակի
հենրի
լուսանկարչական
մեխանիզմի
այնուհանդերձ
նկատեցի
աշխատեն
մարդատար
նախագահներ
թադեւոսյանը
##գիտական
նշումներ
##ոլի
հեռուստատեսությամբ
հիշեց
ադեկվատ
ավելացվել
շուտափույթ
հեռացման
##տվող
նպատակաուղղված
աչքին
քայլով
բացառելու
փլուզման
մրցանակներ
##գով
հույսի
շփումները
##մարի
##ոսյանը
ռիսկ
##ուցիչ
անհետանում
փոփոխել
հաղթանակից
զորքը
ողջունելի
կամուրջը
հունահռոմեական
տնօրէն
աւելին
զրոյական
դիտորդ
քաղցկեղ
լեհական
կասեցնել
կրկնվող
հիմնարկում
անձնագրային
վազ
գր
մեթոդով
վաճառող
գիտաժողով
համեմատած
##ծվի
դյուրին
պրոբացիայի
բերքը
##որները
խորությամբ
հատկանիշների
##րկեց
ընդունեցին
սքանչելի
##գիտություն
ակտիվիստների
տղամարդն
ձեզի
ներսի
շախմատային
ընտրեց
հրաժեշտի
##սեռ
##ւլ
##ւշ
խարդախության
հրապարակումներ
դատավորներին
երգչախումբը
##արկված
ձայնն
##կովի
##ջման
բարոյականության
պաշտոնանկ
բենզինի
ակցիզային
հրամայեց
մարտահրավերներին
կատարեն
հանձնվում
երկրամասի
խանութում
թանկացման
##թարի
##իստների
անմիջապէս
աշակերտը
ուղղահայաց
ուսուցողական
խաղադաշտ
կոմպոզիտորների
չմոռանանք
ծերունին
չգիտեի
գնահատականի
ներկայացրեցին
դադար
հոգանոց
ավանդ
դիրքորոշումները
##թյանը
ձեռքերում
տասնհինգից
զանգի
կանչեց
հունաստան
մասնակիցներն
նմուշներ
փայտի
կասեցվել
հաշմանդամների
սերունդներին
այնքա
աշխույժ
ֆակտո
##տելու
ներկայացմամբ
շրջանցել
հյութ
ճեպազրույցում
տաքսու
կոտրված
հարավկովկասյան
տնկել
դիմումները
##թների
երիկամների
ներկայացուցչական
փրկում
աղմուկը
ճանաչեց
մրցակցությունը
##գործ
պատճառի
ուզած
բույսեր
սկսնակ
ավրորա
բաղադրիչների
ամրացված
համբարձումյանի
մեղավորը
ֆուտբոլը
##եկան
բոնուս
եւրոպայի
հաղորդագրություններ
##ույս
դժուար
թերապիայի
##ադրվեն
գիշերն
մանրամասների
փոշի
##շով
պաշտոնն
##վորման
զորու
վաղեմի
անցման
իտալիան
խորն
մակերեսային
##էլ
անին
##արգի
կոմիտեում
տարվել
սահ
##զվել
լքված
գնահատեց
աստվածների
քարոզչություն
##ցանք
բարիք
նվերը
ծխում
սարքավորումներով
ռոստովի
իմն
իսպառ
արտավազդ
հանգամանքի
քիթը
մնայուն
զեկուցող
կոալիցիա
պահելը
##դները
մայրերի
ռեստորան
գիտակրթական
թաքցնելու
իրականացնելիս
առյուծ
##բյան
աֆրիկայում
հեռագիր
ջանքերին
##յանների
##դերը
զինծառայողը
##յնը
անբաժան
անկարող
ծի
ուկրաինացի
անարդյունավետ
արտասանել
վիթխարի
##մյան
ասոցացման
հարթակի
բացահայտումներ
համոզվեք
ամբողջականությունը
կողմնորոշվել
հիւսիսային
ժառանգական
հաշվարկել
քսանվեցի
արտաշատ
հյուրանոցների
##ակներով
գերակայության
սեղմ
պատվերի
դահլիճից
ինտիմ
##րիի
տանիքի
տասնութը
որոշվեց
##կտ
ընկնելու
##ակերպի
իննսունականների
հունարեն
փորձերի
ոգի
սիրոյ
ստանալը
ալեքս
ձգտել
վերադառնալուց
հաղթանակն
հարբած
թանկագին
##եցվել
##ժեն
##րկեն
ունիվերսալ
գիտեին
ինժեներ
ծնողը
տանելով
սեւակի
կիսամյակում
յանուն
փուլով
##տորեն
կենդանին
կտրականապես
աշակերտի
վարկածը
ցուցադրվել
##ուցած
վիճաբանության
կապահովի
մարդկությունը
սեղմեք
##ալյան
##մերը
էլմար
լսումներ
կանգնի
հուշահամալիր
##խելու
##րյանի
թքած
համալսարանների
երեքն
հատուցում
մկանները
##դվել
միջինը
իռլանդիայի
հեղինակին
նվագել
##պով
վերապատրաստում
գաղտնիքները
բնակավայր
վարկավորման
ռեժիսորի
վճարները
քսանհինգի
զիջումների
վաղն
##բանի
պահուստային
##երական
##մել
##տանա
##րկվեն
փրկվել
զոհը
ուխտի
օրիգինալ
զորավար
հարգարժան
լաբորատորիա
ձեւաչափի
արտադրել
հալեպի
##նգը
թափանցիկության
տեղացի
երազանքի
լեհ
աշխատավայրում
##կությամբ
միասնաբար
վախեցած
կատար
մայք
##ստա
չարիք
այգիների
կներկայացնեն
նախարարական
պող
##րները
եփել
կազմակերպությունն
##ուեց
կառուցվածք
բերող
երեսուներորդ
բաժակը
սկսվեցին
կատարմանը
##շյանի
ազատամարտի
արտգործնախարարների
գործուղման
հիմնավորել
բազա
արցախից
նոյյան
ամուսինս
դիտավորյալ
գովազդ
դասընթացները
հեռահար
սիրիահայ
##սեց
ժողովրդավարությունը
ամերիկան
դերասանների
լեզուներ
հրամանագիր
վարձու
սեղմել
այնքանով
առավելությունը
սիրահար
պարտավորվում
##շար
ախալքալաքի
վարքագիծ
ծանրակշիռ
բնակարաններ
թոշակի
տարիներով
դաշնակիցների
սիրտն
աղասի
երգն
ասելիք
##ադրուած
ոչնչացնում
իրանն
##նալ
##ութիւններով
մուտքն
փոխի
##քյան
բորբոքային
տեղափոխվելու
հիմնադիրը
երթի
գործազրկության
քրիստինե
հանգստանում
մարզերից
հայտարարվեց
շարունակվի
պայմանավորվածությունները
##ցությամբ
լաւագոյն
##ություններում
բերք
ինքնաթիռ
մետաղյա
նստի
##իզ
##սերը
ֆիզիկա
##դոր
գյուղացիական
##եւան
մեկուսացված
զարկերակային
##վությունը
հետին
գաղափարին
կաթողիկոսին
աշխատանքներից
լսեք
ինչքանով
ապացուցելու
երկրամասում
##ոճ
ընդունվելու
մայրիկը
փողոցներով
սարքերը
##ակերտ
հարցաքննվել
տարբերվող
կողք
առավելության
հորդորեց
շի
ժանրի
##ավորած
##եղենի
##պյան
պատկերում
մահուան
##ամյակի
երկրորդային
##ացվեն
բեռի
դիմակայելու
##արկումը
զբաղվի
կանցնեն
##կելու
համոզվել
եգիպտոս
##ադրած
հավատարմագրված
քեզի
բադալյանը
գիտակից
լավագույնն
հասցնելով
հավաքագրման
##ովսկին
ստորագրությունը
բախումներ
քաշ
անջելեսի
հակոբյանին
ներառվել
դիտեք
փոքրիկը
ամուսին
շուշի
ընտրակարգով
չեկավ
թանգարանային
կորյուն
եղիազարյանը
ճակատին
անազատության
գրականութեան
նվազագույնի
տարր
փոխվարչապետի
##անոցը
արժեքային
բնակվել
օրենսդրությանը
ուրիշը
համբավ
հայերու
տարածվեց
թեստավորման
համով
##եցնեն
կարողանալու
պատահի
պորտուգալիայի
գործիչներին
##ցրի
##ութի
գշ
կանեմ
նան
պետությունից
անասնաբուժական
ծխելու
անհարկի
հաղթանակների
##ենին
աստղը
արարքների
հինգից
առնվում
բլոգում
ծայրագույն
հետախուզման
ձեռնարկի
համակարգման
ուրախալի
ոսկյա
հաշվարկների
դադարեցնում
ելքով
խաղալիք
փոխանցումը
զեկուցել
կայանի
շրջաններից
տուժում
մոտավոր
##տեղի
անհոգ
գյուղերից
ժոզե
անխափան
##յինք
ավանդույթը
կաց
հանրապետությանը
ստեղծագործել
քեզանից
աստղեր
ընթացակարգերի
խորհրդակցական
քննական
##ղն
ճաշակի
ներկայի
##կկ
իշ
վեճերի
##աղբյուր
գէորգ
կազմելով
ջահել
##արժեք
հիացած
բնակիչներից
սրահի
տեղադրելու
հրատարակված
##նվի
բանտից
դանիայի
իրողություն
սովորողի
##չութեան
բանաստեղծությունների
##անէ
անհետացել
հարցումների
ախտորոշումը
ռեստորանում
խնայել
սկսաւ
առանձնացնում
սպաների
երիտասարդին
զգոն
զոհի
ամուսինները
վերջի
քննել
հուզում
գտան
գործազուրկ
անես
փոխնախագահը
ցուցադրված
բանակցում
լազերային
մրցաշար
##րացած
հավաքականին
կրճատում
ժողովուրդները
##գրերը
բարդություններ
պրոցեսի
բարձրացնելով
հզորության
պատճառելով
խոսակցություններ
խուսափեք
##լաս
սեռը
անջելես
հայտնաբերում
##այնությունը
##ոնիա
գործակցության
կանենք
##անքն
##վանքի
երեւակայության
վերականգնվող
փոր
ժամում
վնասվածքների
հետեւանքներով
օդանավակայան
այցն
չարի
ցուցահանդեսին
հանցագործությունները
մրցանակակիր
վնասները
ժամկետանց
կարծել
նամակները
##աբերի
##կոտ
ճանապարհատրանսպորտային
մտնելը
գեղեցկուհի
##աշարի
լրագրության
խորհրդարանն
հոսք
հարստության
պահանջն
հարկերից
##ծությունների
այցից
լուսնային
հորինել
յուղի
##ձնի
անտոնիո
հարսանիք
ներկան
արդյունահանման
եղեւ
հանրահավաք
միջերկրական
օղակ
ավանդների
արվեստում
գործընկերը
##զայի
ինքնաբերաբար
մանուկների
խոռոչի
հանձնված
##ացրու
##ավարի
##հանի
կառավարող
հայրապետի
չունեցավ
միջոցն
տավուշում
անցեալ
գնաճը
պատասխանատուների
##լահ
հիմքն
ցույցի
սաֆարյանի
սահմանման
ֆինանսավորմամբ
աշխատողներ
զո
կատարվածը
##վարդ
##եցիր
շար
ընթերցում
մերն
նորվեգիայի
կապվել
վարկերը
գյուղն
հաշվետվությունները
##շերի
երեկոյի
շարունակէ
չինաստանից
ավարտելու
ընդլայնելու
հիրավի
թվաքանակը
մեկնաբանության
պայմաններն
սենատոր
ատելություն
##զիայի
երկրագնդի
լիբերալ
պատճառաբանելով
ապրելով
տմպպհ
կանոնադրությունը
հարցրի
մատ
շարժիչ
պաշտոնյաներին
տարբերում
արվեստների
գետնի
##դրության
ներմուծումը
##ավորելու
այբ
հիգիենայի
##շիկ
բաժանումը
##րից
մրցակցություն
ձուկը
տոնել
մեղրիի
քրիստոնեությունը
##ակցութիւն
երեսը
թալանել
վճարումները
##իությունը
տեսողության
անկախութեան
բարձ
եկեղեցուց
##աժ
##զեն
##ոթ
##տութիւն
հայրենակիցներին
##խած
հավաքը
հոդ
մերոնք
լրատվամիջոցներում
միստր
ռաֆիկ
վստահեցրել
##ծվեց
ասոցիացիան
##այական
##ղվի
զգեստ
շվեյցարական
վերացնում
##ականություն
օպերատոր
##զեց
հարձակումների
վարչարարության
տեղային
խախտմամբ
դիմակներ
տեղերի
անսպառ
հերոսներ
պարտադրված
խառնուրդը
պատվի
զանգում
դավաճանության
մտադրության
կիրառելով
ճամբարում
միանձնյա
ուիլյամ
ապարանի
կրքոտ
##արում
##ծումը
##տէ
արաբկիրի
արտադրողների
գասպարյան
անցնելուց
լատինական
եկամուտներ
տարեվերջ
անակնկալներ
մագնիսական
ատամի
տոմս
հաղորդվել
քնքուշ
խիզախ
խնայում
հայությունը
##սայի
քաղաքականութեան
դիմակը
խոստումները
դրսեւորումներ
հերացու
##վությամբ
սրտանոթային
արձակում
կարոտ
մուրադյանի
մրցաշարին
##ներորդ
աշուն
գերակշռում
ոչնչացնելու
վճարողի
թիֆլիս
միությունների
##որներ
բոլորդ
խորհրդատվության
վթար
անտիկ
դեղ
պրոցեսների
օրինակները
ուրախությունը
քսաներեքերորդ
##յթում
արզումանյանը
կշարունակեն
քարտեզ
##յնի
բելառուս
լվացքի
հաղթանակներ
չելսիի
ներկայության
պայմանագրում
գլխավորապես
հիմնովին
խմբագրի
մատաղ
նայիր
վալերիյ
##գների
անդամակցելու
աչքերս
կոչեր
մուսա
##բուրգ
արցախն
լրացնելու
##շակ
ժողովրդից
կատարեք
հանդարտ
ունեցողների
սիրիայից
##ենտալ
ակցիաների
անժելա
բանաստեղծը
կազմակերպութեան
##բերգը
հաստատությունները
##անյութի
ակտիվիստները
արձակված
եղբայրն
խանգարման
հոգեբուժական
զորավարժությունների
սպասեք
դրվագ
տեղեկացանք
հավաքած
նէ
ցուցակները
##սյանի
միացված
վճարային
##պին
կոճակը
մինետ
##ապետը
գետին
խաբում
մեկով
ժամանակաշրջան
տարեվերջին
տոմսերի
դավթյան
րար
արարատը
##մունքը
գումարն
ճյուղ
քսանիննի
##անիշ
##յուղի
այլուր
մելքոնյանի
ուղեգիր
##բո
ամանորը
կենտրոններում
անգործության
դասակի
երազանքների
արդարադատություն
գծային
բնակեցված
սկզբունքներ
տաղանդը
##ովիչը
##վեցինք
յիսուսի
##իսի
թեմական
կայսրությունում
շնորհելու
##լուն
կընդունի
տավարի
նախարարներ
հավաքականների
տասնյոթը
լարս
հայացքները
մաղթելով
յուրա
խախտվում
##մանա
ցնցող
##զոր
շինծու
սիրիան
քանակական
գագաթին
ծածկում
համագործակցելու
տատիկի
##որային
վին
##ելն
մասնաճյուղը
աղյուսակում
##շեց
##ցեալ
կնոջն
տնտեսապես
օգտագործմամբ
ամրապնդում
հրատ
##չիկ
##տենք
մարգարյանն
համացանցային
նայ
օրինաց
բազմազանությունը
կարծիքների
##ղության
իրավիճակներ
ջոկատը
ծե
հակասող
պայմանավորվող
կիրակոսյանը
տվեցի
փոշու
լեզուի
միջանցքի
##ագրութեան
կովկաս
սում
##երդ
լսումների
մարությանի
նախընտրած
պետն
գլխավորը
##առող
աշխատակազմում
գեր
պաշտոնակատարը
այցելություն
կայսեր
հաշվարկը
ազնավուրը
##գործության
առաւօտեան
կերակրման
գործադիրի
մտքից
##զար
բախտ
ընդունող
##ացումներ
ոլորտային
մարգարիտ
##ճար
ընտրանու
կեսի
պայմանը
տեսականորեն
զավակներին
հավաստիացնում
անցնելը
բռնեց
թղթակցի
ազդելու
ծխելը
խանութներում
կապուած
յոյս
կենսաթոշակ
տիրապետության
##իին
ընտանի
հանձնակատար
կախ
անկուսակցական
դասվում
զրկում
տեղամասային
կիսով
չափման
##եական
ապահովվում
ունինք
##անակ
ժողովրդավարություն
տերեւների
արտադրված
հայրենիքն
մեղքերը
ասիկա
ծաղկի
սիսիան
##ետում
կենտրոններից
նախապատվությունը
սրտանց
##լվել
##սելի
##արձ
թաղամաս
կոնսերվատորիայի
ավտովթարի
հիվանդությունից
պաշտպանող
տեմպերով
ընտիր
թեստեր
իրականությունից
մեծության
միրզոյան
սահմաններ
##ցութիւն
երեսունմեկը
շնորհակալութիւն
դոնի
վերաբերմունքն
ծրագրված
շարունակվեց
շինություն
հետմահու
##ժե
ականջի
հեռանա
լարիսա
ապրեց
պայքարից
նիհարել
##ոներ
##արկվող
##իոյ
հասունանում
շիշ
ուժին
ինտերնետի
նովոստին
քննում
հիվանդանոցային
անձնագրի
##ցնելով
անգնահատելի
դեղորայքի
իրադարձության
կատակ
##պիկ
անտոն
արդյունքներից
կենսաբանության
գործարարը
էյ
պղնձի
դառնալը
արդյունքներին
տում
ոսկին
հյուրընկալվել
կողմնորոշման
փաստերով
անցնեն
խոսրովի
գյուղապետ
հաշված
մեծությունը
ականները
կկատարվի
միքայելյանի
##բերգի
##գրել
նից
##ադրեն
թուրքերեն
վիզայի
քրդերը
պահապան
##ավի
լսարանի
ճանապարհից
##մած
եղանակները
լճում
ծաղկաձորում
##քերում
պաշ
սպարտակ
ճանաչվում
ստեղծագործություն
քաղաքակրթական
դարու
մայրության
##գներ
պատանդ
բավարիա
պայթյունից
արշավի
սպառողներին
##ամեայ
##տութեան
վարչակազմը
բարսեղյանի
քաշեց
հոգիս
ստանդարտների
ցուցանիշներ
վարպետի
##գրական
##նց
երկուերորդ
ծառայի
շարունակենք
ստամբուլյան
##լել
հեռանկարը
այրում
թողնենք
##ռաց
##ւտ
թյամբ
պնդեց
քրիստոնէական
արագած
կմտնի
##աձոր
բանանց
հասցեագրված
բակալավրի
անձնակազմին
գլուխս
մարգարիտա
չափանիշներ
##ակերպման
մեկնաբանությունների
վարորդին
տգեղ
ներկայացուցչին
##ցրեք
թաքցրել
զայս
թրաֆիքինգի
ամբիոնը
ապացույցն
լեռները
հողեր
ճանաչվեց
##ակցել
##ողներ
##սած
բալ
գերակշիռ
միջի
քսանհինգամյա
այնուհետ
գրելով
ղրղզստանի
արթուն
գնալը
թեւերը
##իչի
կիրակնօրյա
պատուհան
##քած
խառնվում
սպանությունների
նկարչական
օրենքներին
##յուս
հայելի
կորպուսի
##առվեն
հարգանքը
անգիր
վճարը
քսանութը
թեկնածուներին
պատահեց
վկայականի
##շատ
արտգործնախարարության
զարգացել
միացած
դարից
վերահաստատել
օժանդակություն
հասարակութեան
ցույցերը
ծո
ընտանիքներում
ռուստամյանը
##ակցում
##սիան
հրաժարվի
փորձեցի
##աժի
կրթությունն
ռեստորանային
##ցով
տեսահոլովակի
թերությունների
առաջարկված
երանգ
վերջիվերջո
տատիկը
դիմումներ
կկատարի
երիտասարդությունը
ընթերցողը
հեղուկի
տագնապի
բյուզանդական
խարկովի
շտաբը
սերիալի
ականների
հարմարվել
հատվածից
ձուն
մարուքյանի
##հել
##խորհրդի
շինություններ
աջակցման
թեղուտի
լրատվամիջոցներին
հայերենով
##ցո
նկարագիրը
քսաներկուերորդ
հսկողությունը
ճանաչի
մթերք
որոյ
խմբերում
համո
վարորդներին
երկրորդն
իջավ
խորենացի
կայացրեց
մակունցը
մտնելով
գնացքը
իրագործելու
նպաստների
##կեք
վարող
հյուրանոցը
սասունցի
հայացքների
##լտ
արձակ
տարածությունը
մարմիններն
մեծամասնությամբ
ապրես
վերջապէս
տոկոսադրույքը
ռոնալդուի
կրկնվում
դիվանագետ
կապիտալը
հարաւային
ցուցակով
հրապարակումից
պատկերների
հատկություն
ձեռամբ
ձեւակերպումը
մակարդակներում
բակի
վրայի
լիանա
##եշ
գլխից
խառնում
կերպարների
սարյանի
պատկերասրահ
ափսոսում
##ավորվեն
բնակչություն
ընդլայնում
ընդունենք
ուրախության
##ազուրկ
հետաձգվեց
##ատեսակներ
զորավոր
կներկայացվեն
սէր
##լված
դրամատիկ
##ճառ
բեմական
կրեց
ստանձնում
##ցեցին
մագիստրոսի
ստում
բելառուսը
եղանք
##ագիծը
ամհ
էմմա
նշանակվելու
գրասենյակից
հէնց
անհասանելի
առջեւի
ընդդիմությանը
ասվածը
գտնուի
մուտքերի
անվերապահ
դիպուկ
կլիման
մինաս
ստեփանոս
աղոթքը
ենթադրաբար
իսահակյանի
հեռանկար
բնութագրում
օգնությանը
աղմկոտ
ավտոտրանսպորտային
սցենար
կրակոցների
տարվանից
ավանի
ճնշումներ
##ենս
առաջարկությամբ
մարտահրավերներ
սանասարյանը
քսանհինգը
տպագրված
անդամակցությունը
թռչունները
հանրապետականի
նիւթական
զինծառայողներ
սարդարապատի
##թու
##զե
ջանում
անգամներ
նահանգապետ
փոխանորդ
##չեց
##վորված
կերակուր
մտահոգությունը
##ձեի
##վածությունը
դիտարկմամբ
շտապել
արժեքներին
թելադրում
##չությունը
թարգմանվել
մտածողությունը
առաջարկությունը
միթե
ազատությանը
հրդեհների
շնչում
չլ
շտկել
դեմոկրատ
դնենք
կրծքագեղձի
հյուպատոսական
ձորում
պատգամավորն
սիրիացի
ընտրությամբ
ավելացրեք
զորակոչի
պատահարների
գրողներ
ոճային
դիրքով
ունեցա
ղուկաս
նշանակէ
առեղծվածային
իրաւունք
սանհանգույցը
##կացնում
##վորեն
ամուսինների
սկզբի
ժնեւում
պարտավորությունը
վերցնի
##ուիլ
մարգարյանին
առաքելյանի
կիտրոնի
համայնքներին
առօրյան
ժե
հավասարակշռության
ողնաշարի
անհամատեղելի
յունիս
շրջայց
դիմադրություն
կերպարները
հանցագործություններ
ցուցադրական
հիմնավորման
##արկեն
թանկացել
խաչատուրովի
##ադա
յոց
անկաշկանդ
պարզունակ
տասնյակից
##բեկ
չունեի
##յուսի
դատապարտյալի
խենթ
ճառագայթային
ճեմարանի
##րորեն
հնչեցրել
ղեկին
փոխվելու
##ատվության
թմրանյութերի
կերտել
թունավորման
##ծենք
ինտերակտիվ
կրթահամալիրում
մտերիմներին
նահատակների
##ծմամբ
##կյանի
ալումյանը
եկեղեցիներում
մեկերորդ
##անցի
կարի
ամենափոքր
ավստրիական
ապակե
համերգներ
##ոսյան
ապահովի
##շարի
##պետության
սմոլենսկի
սպասենք
##շային
նայեցի
պուշկինի
##րակի
լիվերպուլի
խոստումներ
ուս
վիրուսը
փախստական
գործոններից
դիմի
ձեռքս
ապրելակերպի
ստեփանավանի
աստղի
կարոտում
սարսափ
##արների
##գնում
##սների
կրիշտիանու
ուշացած
դավթաշեն
սանտա
տերյան
##ցուք
բացատրությունը
արտարժույթի
հարող
հիմնվում
սոխ
##ուկների
հեքիաթը
շնորհավորեց
տօ
կերպարվեստի
նիկոլին
պարբերականի
հանդիպեցին
##նամյա
ալաշկերտ
կանցլեր
մշակաբույսերի
յուղը
սկզբունքներով
վերաբերել
##վելի
մարդկությանը
անտեսում
ելույթից
հիշարժան
ընթերցող
ութից
սխալվել
գիտատեխնիկական
կասեցման
սթիվեն
դեմքեր
զորքի
անբավարարության
ասեցի
արդյունքով
գունային
թիֆլիսում
ոճ
սպառողի
տասնչորսը
կիեւում
փոփոխված
##ացնէ
համախմբված
##անո
աստերոիդը
կերպարներ
ստեղծարար
##թվի
քսանվեցերորդ
տիկնիկային
շղթայի
պատմ
այժմյան
հայտնաբերվում
պաշտպանվելու
##խանյան
##յզ
վազել
##բուրգի
դանիելյանի
զանգը
կարդալով
հավասարաչափ
երուսաղեմ
գնացքի
կանադա
կոշիկները
ուղեծրի
գոյատեւել
օպերատորի
##մս
անվստահություն
համակողմանի
հեքիաթային
պատկերասրահում
##խման
արեգ
թարգմանություն
տապալել
դրվագներ
շաբաթում
##լից
##տակը
բույսի
հյութը
շահառու
ուշադրությամբ
ռեստորանի
տղաս
քանիսն
համագործակցելով
խոշտանգումների
ցուցադրության
չարաշահման
##աշար
##ղթ
անասունների
կախվածության
##ոցների
##լավ
նպատակներն
պոլսի
վստահորեն
քհկ
խրախուսել
հավատարմագրման
մատնել
ներկայանալու
ստյոպա
տվյալներն
փայլում
ավելացում
երկրորդի
կենտրոնին
##տվեն
առաջացրեց
համախմբել
հանրահավաքը
լեզվին
պարզաբանումը
վախից
փուլային
դեսպանն
ականջ
նաս
քարտը
##ամյակը
էրդողանն
ձմեռը
ներկրման
արդարացնել
ներկայացուցիչն
պաշտոններում
##ցիաների
աշխատակազմին
խորանում
ներդրված
տիրապետել
քսանյոթերորդ
գործառնական
կերակրում
ջի
զարդեր
##եստի
հակառուսական
ցավն
հզորությունը
նստավայրը
հնարավորություններն
առաջարկին
երգահան
հոլիվուդյան
շուկաների
սպորտով
փոլ
տոնով
##պետական
բացակայություն
տոնն
գործունեությունից
զինվորներ
հերթապահություն
ուսանողը
շրջափակման
վեպ
տարբերությունները
չինացի
զինուժը
խորհրդականի
վերնագիրը
բարեփոխման
դրսեւորումների
ստորագրություն
##ունին
բնա
գտնված
դատախազությունում
հրապարակից
ճանապարհորդության
սուբյեկտի
չանցած
քչերն
##ցքը
ամերիկացիները
ծանուցման
վարակը
##խին
չտալու
##լոգիական
պլանները
ընկան
##րտում
դաշնակցային
քրիս
##կուած
տեղեկացմամբ
##ահասակ
բախշյան
դատել
վաղեմության
հատիկ
ձեռնարկելու
համացանցը
անհատներ
ֆիզիոլոգիական
ակնկալվող
էրեբունու
վերածվեց
##ագծի
արեգակի
բողոքներ
ոլորտներ
կոշիկ
նէն
շնորհալի
##ցնէ
կողմնակիցների
հարեւանի
մակերեսի
ֆոնդային
##սեմ
երանելի
միլան
անելուց
բարձրացրած
ընտրելով
լրաց
խորհրդանիշը
##ահարության
թաղում
յուլիս
վրաստանին
##գնի
գինն
լատվիայի
##ագծով
մեկնարկին
աշխատության
ենթարկվելու
փոխշահավետ
հավաստմամբ
ինտեգրացիոն
սահմանադրություն
##րբ
ախտանիշները
կենտրոնները
հադրութի
ստեփանյան
արտագաղթը
բանական
հանձնարարվել
հնդկաստան
գրասենյակային
խախտելով
թուրքերին
մատը
ապացուցեց
առնի
ամբողջություն
##կտիվ
փոփոխական
քանակն
##տվեց
##սից
գլուխները
##ագրած
անկարայում
բանկն
պատժվում
տեքստ
գերաշնորհ
ստի
ամերիկացիների
արագության
ծխախոտ
հոգեպես
երեւանին
սահմանն
##հաս
##մենի
գտնեն
պայմանագրերով
պաշտոնները
բարդությունների
երեսունհինգերորդ
ծավալված
աղբ
բացը
զուգահեռաբար
տեղանունների
##ռներ
ամբաստանյալի
երգչուհու
սիթին
դեմքերը
հանգեցրեց
պարտավորության
հայրերի
օրինակին
գալստյանի
##լներ
դեպքերին
խոսքս
նորմերին
պոլսո
հանրապետությունից
հրահանգ
հակառակորդ
վիճաբանություն
ժամանակացույցը
հայրիկ
ղազախստանում
շարունակություն
կիսաեզրափակիչ
փոշին
##ատեսակի
համազգայինի
եղանակներ
ժողովրդավար
պողոսյանին
տարիքին
կաթողիկոսն
մտածված
մարզեր
մինսկում
պարտական
տեսահոլովակը
##ագլուխ
ակնկալիքներ
կազմակերպիչների
վարդենիսի
վարժարանը
##բերեց
ելույթների
պնդումները
ծայրը
##ոտը
ընտրատարածքում
արտոնություն
ցեղասպանութիւնը
##մենը
բազմակողմ
հովսեփյանի
մթերքների
միջամտությունը
ուսումնասիրվել
##նած
ամբողջապես
անունների
թռչել
թուղթը
անտեղյակ
հայտարարվում
##ջուր
դեռահասների
խանութների
հեքիաթներ
մեծամասնական
սեզոնային
բուժվում
խվ
մտածենք
##փեր
պարգեւատրման
օրենքից
մրցունակության
պատահար
կարողացանք
տպել
րոպեից
##բերել
##եթի
գոհունակությամբ
պատկերով
պատճառած
խորեն
փորձարարական
փոփոխություններից
արմենակ
կայքեր
##պված
##վածքների
դիմանում
կնքում
ներկայացուցչության
եռակի
վայրն
գործադիրը
խառնվել
ոստիկաններ
եղա
դեկան
հվ
նելլի
##թիկ
առյուծի
կհանդիպի
հայտարարած
քննադատությունը
ուղղուած
##ացներ
բելառուսում
ուտելիք
իրադարձությունը
մոռանա
վաշինգտոն
տասնվեցը
վայել
իջեցնել
համաներման
արհեստականորեն
դավաճան
քսանմեկը
դիմանկարը
հիշողություն
պրոցես
դիրքապահների
ընկերներիս
սպայի
տասնամյակների
##ապաշտ
##նություն
խորամանկ
կարգն
կտրամադրի
վիրահատությունը
ոչնչացվել
##յեր
##րեի
սահակյանին
ավելացումը
դաշնակահար
դրեցին
հուսանք
ջարդերի
էսքան
կոսմետիկ
նպաստը
պայմանականորեն
##ծությամբ
ապստամբության
խանութներ
կրակոցից
համակցված
փրկիչ
ատրպէյճանի
խմիչքների
փեսան
դաշտից
լրացված
համապատասխանությունը
պարտքերի
##տնես
ավստրալիայում
արձագանքելով
դինամիկան
##ադրութիւնը
բազմազանության
հարկից
հակադիր
զավեշտալի
քույրերի
արձանագրած
գումարային
մինի
ցանցային
ժամանում
նպաստելով
պլանների
##տեխնիկայի
մարշալ
քայլերից
##ատներում
ցել
##ւարի
օրենսգիրք
աչքեր
ծրագրավորման
իսլամ
կենսունակ
##անար
թաղի
իսլամի
խոսնակի
ողբերգություն
չափանիշներով
տատանվում
գայթակղիչ
ֆրանսահայ
ապրիլից
արվեստագետ
իրավունքներին
հասցեի
##րսի
ընդունեք
կանանցից
##ջանյանը
##տվում
անօգուտ
թարմացումը
##խեց
լոլիկի
հաղորդագրությունը
ընդունումից
պլանավորել
դաշնամուրի
երեւաց
հյուսիսարեւելյան
##լիս
հոգեւորական
փողոցով
##րերով
ավարտելով
հիշեցնելով
աղյուսակ
հաղորդումների
##ալական
նվիրական
##ճել
տեղավորել
աստվածը
գիշերները
սարքում
##նեի
##ոմի
##որակ
##տացիայի
ծնունդով
նն
կարս
մերօրյա
մելիքյան
##լլա
##կոս
կփորձեն
տղեն
հասանելիության
##րուն
գիտաժողովը
հասկացանք
նախապատրաստել
ապարատի
դպրոցներից
կորեան
նախապայման
բիզնեսին
գործարարները
##նվող
բացելով
դասին
ժամանակահատված
##ութեանց
խորհրդարանին
հանդիպումներին
նազարյանի
շախմատ
պլանավորված
հիշատակում
##րվելու
գերեզմանի
գործառույթ
վերահսկելու
տեխնոլոգիայի
զարեհ
ղարաբաղա
իմը
սրբերի
##թներ
ամրագրել
գնահատված
օժանդակել
##րեան
##ացիր
արշակյանը
խնդրանքը
խոչընդոտները
սիրահարների
##ծերի
ուղեւորները
##ացնեք
խանութները
հոգիները
նկ
##հն
կտրամադրվի
երաժիշտների
ունեցածի
##ագործական
հիասթափված
բնակավայրեր
##դամի
ապպա
##ացումները
բնավորությունը
հուշարձանները
վերջանում
##եիք
մեդիայի
քունը
ժամանակաշրջանը
քչերը
##մենտ
##ոսին
լեհաստան
կոշիկներ
տեքստում
ֆա
##առուի
հրետանային
տասնմեկը
արհեստագործական
ընդլայնումը
քրիստոնեայ
կամավորների
կեղծիք
վաստակած
անզոր
հովսեփյան
հռչակել
բեգլարյանը
հանդիպումներում
անհարգալից
##ուղում
քաշաթաղի
##ախումբ
##անեն
առաջացնելով
ակումբային
անսպասելիորեն
համաձայնագրով
հետաքրքրության
կոչին
մտածող
շրջա
հաղորդագրությունների
##անամ
ամյակը
գիտակցաբար
հապա
առաջացնող
գիորգի
##յար
անձնագիրը
բանկին
թշնամիների
որակում
պարզապէս
##ագրուած
##եքի
##յսի
ախտորոշմամբ
խոչընդոտների
հեղինակներ
կստեղծի
բաղադրիչի
արյունոտ
գնդակի
դառ
իմաստն
խմբավորումների
սրճարան
արթուրը
կոնֆերանսի
սփիւռք
տեխնոլոգիա
##որվել
տարեդարձին
արեւմուտքից
մանուկյանն
կշիռը
մարմնավորում
չկարողացա
գաղափարախոսությունը
գրաֆիկական
իննից
կինոյում
համեմատության
շահեր
սպասելի
##յակում
կանոնը
սկսեն
վկաները
##եյն
նստելու
տոկոսանոց
##ակարգի
##բեկյան
մակարդակն
մերձակայքում
վիրավորանք
կորեական
արվեստին
եզրակացություններ
հավաքածուի
##ոգի
խախտված
փառքը
##նկ
ակ
լեւոնի
ծանրաբեռնված
մթնոլորտային
պետրոսի
հայրենիքից
բանախոսը
խնամքը
հավաստող
ունակությունները
չէիք
իմացության
կազմին
հրեաները
վարք
տասնիննամյա
##ժա
արդարացնում
թաքնվել
##ոնն
ամառը
դատավորներ
իրավապահներին
լեւ
մատները
ստվերի
գրուած
ժողովուրդներին
միջոցին
տաթեւի
արեցի
հայկը
հանրաճանաչ
հերմինե
մատնանշում
մնացորդները
նալ
սիրելու
սրտերը
##րանա
աղմուկի
գործիքի
իվետա
հայտարարի
մասնակցելով
ունակություն
տհտ
անսահմանափակ
խտրական
կաշառքի
միտումը
գույքահարկի
կտեւի
սպառնալիքը
տարիներու
արեւելքից
ընկերութեան
ուտելուց
պահն
տեսնո
##րամ
տրամադրությամբ
##ոլոգ
անհատը
արգելքի
գահ
##նութեան
թուրքի
տրդատ
ցանկացող
##թման
երազանքն
թռչուն
ղեկը
փծ
կուտակել
ղը
ստորագրած
ցուցումներ
##բանկը
աշխատողը
##դեց
##ասար
ընտրակաշառք
փոխարինման
##թած
ցուցադրություն
##լվում
##ակեր
աղքատությունը
գներ
լրացման
ստվերում
##բույժ
##միտ
խոնարհ
խոսքին
##զանի
կտավը
իշխանափոխություն
հաճախորդը
նգ
միեւնոյն
##ինգ
պատասխանող
վայելելու
հուշարձաններ
##ռները
վերածելու
սաակաշվիլին
թեհրան
սառեցված
##զական
եղեգնաձորի
միավորը
դուխով
##ձին
##ցենք
երաշխիքների
միացնել
##գանի
էլիտար
ծնում
հաջորդել
ունեցողները
վաստակում
##ցուցած
անկարգությունների
##անդի
հաղթահարում
սրբազանը
պահող
փորձարկման
թռիչքը
հաղորդելու
հուզված
առաջնահերթություն
հստակորեն
##այր
գառնի
դամասկոսի
լրատվամիջոցներ
տարածքներից
արձակման
ինքնաբացարկի
ընկերուհին
շվեյցարիա
##տեան
բյուջեում
մղելու
սխալի
վենեսուելայի
օդանավակայանը
##վածքը
գենետիկ
սաս
քրոնիկական
##եսա
հայաբնակ
ներսիսյանը
դռնփակ
կարողանաք
մայրերը
սահմանից
թու
չելսին
պատրա
ականջները
առկայությամբ
շոուի
ձեւակերպված
կայքերում
հալեպում
##թենէն
համալրել
սյունիք
##պետի
հեռուստացույց
պատվիրակությունների
տանիքը
տասներեքը
##ցերը
##փոր
հիմնադիրներից
ձեւակերպման
զբոսաշրջություն
երեքերորդ
թռավ
հանդիպեցի
հորմոնալ
նվիրեց
իրադարձային
##ժվի
հումորի
պաղեստինի
ատոմակայանի
գնահատականների
րեց
##ոտում
մաղթեց
տիեզերք
աղբիւրը
հարեւանները
սերմերի
քիմիա
##րութեամբ
չվերթի
օլիմպիադայի
##րելով
արտահանում
կայն
ավտորիտար
պատկերավոր
հեծանիվ
ռազմաբազայի
տանեմ
ֆորումը
##ասիրություն
##բել
մտավորական
աղոթել
##ջանյանի
սուրճը
##ուխ
վիճակով
օսիայի
էջին
թեստը
մեջտեղում
պո
##եզ
այլնի
հայաստանյայց
##իլի
դոնեցկի
նվազ
արտադրությամբ
##իզի
կրքերը
ներկայացումներ
շրջապատը
ցանկի
քնելուց
թվա
սեղանը
աղետ
գոտուց
դիմավորում
քսանութերորդ
##կիր
անձից
ներմուծված
չստացվեց
##յրը
լավատես
հանգել
չարաշահումներ
արմենիայի
դաւիթ
կոչուած
սենյակից
ժպտաց
վիճում
փաստարկները
հավատով
հետաքրքրությունների
վերջոյ
երդման
էրզրումի
կուրծքը
փոխհարաբերությունները
դնեն
քսաներկուսը
անկարելի
##քյանը
ամփոփեց
պարապ
ապրեն
մրգերի
պատգամավորներից
##ոցն
ռադիոակտիվ
վկայություն
հանելով
մոռացված
շաքար
օկուպացված
##յեց
դեյվիդ
հանդուրժողականության
հետեւություններ
արգելվել
էդիկ
##երները
մեկամսյա
արուեստի
հողն
ջերմությամբ
օրերն
գիտելիքներով
սեղմում
քսանութի
օդանավի
անհանգստանում
հարվածով
մէն
սահմանափակվել
վարժություններ
##հանում
ինովացիոն
##մական
վարձը
աշխատությունը
բավարիայի
գրավ
մանկավարժության
##ավայրի
գաղափարներով
խանգարի
մասնաւորապէս
##աքարի
##տանի
##ւթյուն
խփած
թթվածնի
իրավունքներից
հունան
ցը
##ահարված
##ակցությունը
դավթի
հարաբերությունը
ցեղերի
ակտուալ
բժիշկներն
տարածաշրջանը
##դրող
ակցիաները
կիրականացվեն
հաստատությունում
##րդը
ասպետ
զոհրաբյանի
սովորեցրել
##ատման
##վածքի
գրիպի
թերթին
ամփոփվել
ժամերի
ծառայութեան
դեղամիջոցների
##կությունը
##ցուց
անտեսելով
կայունություն
հարիր
հյուրը
մամեդյարովը
տեսանյութի
##պետը
վարկանիշի
կգամ
ամենահարուստ
ողբերգությունը
##թինգ
թիրախում
առաջինի
առաքելյան
ավազանի
մասնագետներն
մտցնելու
գերազանցող
ծոցի
գործընկերային
եղբայրներին
ճիշտը
մով
շահեկան
կյանքս
ներդրած
նախաշեմին
ախտանշանները
առիթներով
մասնավորեցման
քսանյոթը
պատճառաբանությամբ
վերափոխման
##արա
անուան
հիշեցնեմ
##պում
առանձնացրել
քանակ
ինքնապաշտպանության
կանխում
հակահամաճարակային
սեզոնի
##գած
##նչում
ազատութեան
##շվիլին
թափել
իննսունական
իրացնելու
ֆրանսայի
##ուդ
լոռիում
ֆունկցիան
##ամը
գիտակցված
երազանքները
ունենաք
պլաններ
##բուծության
էությամբ
մոռացության
նախաձեռնությունները
##շունչ
առաջադրվելու
խաղով
##ռնեն
դառնար
իրականությունն
##ոդ
կաշխատի
կասեի
##ծուած
առիթից
նախագահող
ալեքսանյան
վիրահայոց
##լդ
գարունը
##բյանի
վառել
արտոնագիր
հրավերը
##յմ
կաղապար
հայտնվի
հօպ
իմանաք
##ատիկ
ներդրվել
էմիլ
ընթացակարգերը
ընկերներն
հարցումներ
տեառն
քննությունները
հնչեցնում
որոշումներով
պնդումը
քննվում
անորակ
դեղերը
խաղացողը
ճյուղերը
##ոյթ
ծախս
կատու
հարցրեք
հոգեհարազատ
ցանկությունների
հրապարակայնորեն
մեկնարկից
բաժանորդները
ստալինյան
եզրակացնել
պատճառներն
##գենի
աղյուսակի
ծախսվել
հարմարեցված
պահանջին
սերնդին
վիլյամ
##որդներ
##փում
հատկացնելու
վատացել
քարոզչությունը
##ելուց
##մյանը
հավանում
##ասրահ
դատը
պաշտամունքի
##րաւ
զարմացնում
ընել
համաձայնագրերի
հետաքրքրել
արտացոլված
արտեմ
թողնված
փառահեղ
խմբագիրը
միացնում
վիրաբույժ
լուսինը
երբեւիցե
օբյեկտներ
##նիկի
անդրադառնալու
##ծուն
կգտնի
զինադադարի
##յալը
գործողություններում
խոշորացված
##ագրերով
կդարձնի
սկանդալ
##ռու
ավազի
բազմաբնույթ
զբոսաշրջիկներին
կինս
հիմնախնդիրը
##աբանը
աշխատունակ
կիլիկիայի
մայ
յորժամ
##առվի
գոլերը
փաստաթղթերն
##նեց
որդիներին
քայլերին
օդանավակայանից
##բանում
մատթ
կէս
վերացումը
##ֆա
դաստիարակչական
իսպաներեն
լուսավորչի
կառավարելու
հանգստություն
##վորի
գոյատեւման
##զված
մրգեր
օժանդակության
##ղաց
բնակարաններից
##եցեք
##կես
արթիկ
տպավորված
զգալով
օրինակի
մարմիններից
դարաշրջանում
հատվածն
վարժարան
գրությամբ
կետին
մասնակիորեն
մարիամը
որոնել
պատկերել
կալանքից
ուղեկցել
սկանդալի
ամսագիր
աստ
գործատուն
չարաշահելու
պատժելու
սեպուհ
##ասենյակ
ալիքների
իրագործումը
կիլոգրամ
ձգվող
շնչառության
##ազերծման
##կանը
կյանքեր
բիզնեսում
եսայանը
զավակները
կոշիկի
վաչագան
տեղաշարժ
գեթ
սննդամթերք
առաջադրանքներ
գագաթաժողովի
ֆինանսատնտեսական
տպագրության
խոնավության
հարավարեւելյան
տիրապետող
ամրապնդումը
նվաճումների
շրջանավարտ
##ակներում
միտումների
սաֆարյան
##անակի
ինտերնետում
պատմականորեն
պարտականություններ
տեղադրումը
արտահայտությունները
հեռուն
ուղղիչ
առաջխաղացման
դրամատուրգ
հատման
հզօր
ռեկտորը
ֆուտբոլիստներին
ծավալելու
հանդիսանալով
վերանում
տասներկուսից
ամենաթանկ
գրեմ
##ամերձ
քահանայի
բանականության
մարզպետին
նախկինի
նետվել
վերադաս
անհավասար
դարը
տոնոյանի
##ակցությամբ
կամայական
չեխական
օբյեկտները
աշխարհագրության
##լինը
արտերկրից
խոսքից
##ասյան
անձիք
մեքենայից
լցվել
հեռահաղորդակցության
համակարգերում
չարորակ
տարիքով
փորձառություն
##ուրա
քսանչորսերորդ
կքննարկվի
մխիթարյանին
արդյունաբերությունը
վկայի
անցողիկ
ընթացել
մյունխենի
##եսին
ընտրանի
հանի
հետազոտողները
մեկս
կտանք
##ձորի
աստվածաշունչ
լվանում
մետրոպոլիտենի
փաստաթղթերով
բլոգեր
զինվորականները
փյունիկի
##արկած
խմբերին
կնքած
օժանդակելու
##գէն
միավորվել
չքնաղ
տուգանքների
##ասիրությունը
բանաստեղծությունները
վերադարձնում
##գրվել
առավելություններ
##դրում
##իկները
##սեք
սերժի
##ալեզու
երեսունամյա
նվիրյալ
որոշումներն
թեթեւակի
ելնում
հոգեբանի
քվե
##բայի
երաշխավորել
բաբաջանյան
զախարովան
բուհում
վեճ
տեղափոխող
գրքերից
դիլիջանում
կրի
տիեզերքը
շեղում
իմացությունը
հավակնորդների
հետքը
##աշատ
##հարկ
մգ
ֆինանսավորվող
արվեստագետի
կծու
լուսանկարի
կայան
համախմբման
րդն
հավատացած
ներմուծել
պարագաների
ցող
շարունակությունն
անիմացիոն
մաթեւոսյանը
պայմանավորվածություններ
անեք
ցեմենտի
կցվում
զոհերին
հերթ
##րկությունը
բերեմ
արարքները
##ժվեն
գյուղեր
զավեն
հնարավորություններին
ֆինլանդիայի
##տանում
վեճը
փոխվարչապետը
##ձբ
նավթ
##ռելու
մուրադյան
ուղղելու
##ծվող
##շվել
ներգրավվածությունը
##աչափը
##զոն
գերագոյն
թեւերի
սարոյանի
##զներ
անպատիժ
վկայությունն
##ելային
##մից
##ջանյան
ժամանցային
համարձակվում
վերականգնվում
բաժանելու
խոհանոցային
կասկածվում
առանձնատունը
բանակցություններից
թերթերը
հարսանիքը
նախապատրաստվել
քուն
հետապնդել
չանել
արշավ
մարսողական
ոչնչացրել
կիլիկիո
##ձել
կամքն
հանդիպումներից
անարգել
բույս
վերադարձած
տարեցների
##իշ
ճառագայթման
նաղդալյանը
իրականացնի
հոսքերի
սարոյանը
##մալ
դասարաններում
ժամկետն
մասեր
##աբանությունը
դեպքերն
շվեյցարիայում
սրահը
դէ
ողջույն
պետություններին
##ականներ
հիմնելու
##ւոց
ենթարկվեց
համագործակցութեան
քաղցած
##աթի
պաշարները
ավետարանական
դիմանալ
կոր
ձորը
եվա
թաթոյանը
օջախ
ավագյանի
ախպեր
##ւոյն
էկրանին
հայերից
արժեքն
բալասանյանի
ընկերություններից
կղզիների
պարտականություն
սուբյեկտ
գցեց
համայնքն
սպառնալիքները
##աբերության
հաստատելով
աբրահամյանին
ալերգիկ
գաբրիելյանի
գործադրմամբ
##լանդը
դիզայներ
պատկերացումների
տապալելու
հայք
յարութիւն
բավարարված
անխուսափելիորեն
պարապմունքների
խոստովանեց
վիրուսային
առանձնահատկությունը
երկրապահ
օրհնության
դաստիարակել
հաւաքական
##սիս
հասցեով
ցավից
##ամյանը
##լս
պահեստային
այր
կադաստրային
պետականությունը
գարեջրի
##ենում
գտնելը
մանկահասակ
սանասարյանի
սինգապուրի
սուտը
շրջանակային
մակրոնի
շահերն
փայլանը
##մների
խոսքերից
##լուր
կեցցե
##կութեան
##յալները
դէպ
ուսանողներն
վուր
եպս
##ակման
հարուցում
մաթեւոսյանի
ուսումնասիրող
չունենալ
պարզվի
ցո
առաջնահերթությունները
ֆիքսել
անմխիթար
ապաքինվել
##յդ
ելույթներով
լրագրողին
վրդովված
քվանտային
երախտապարտ
հնարավորությունն
պարոնայք
օգնականը
ժող
մազերով
միջադեպերի
բարձրագոյն
եռանդ
տնտեսվարողների
րոպեն
հեղափոխությանը
սլավոնական
վճարումներ
ակնարկում
մահացածների
գագաթնաժողովին
ջրահեռացման
փլուզումից
դէպքում
կենսագրությունը
պատարագին
##լիան
կրկնեց
հունվարից
ներկաների
շտեմարան
հայերս
պարտքերը
սիրահարվում
##բուժության
բաշար
հարստություն
մոմ
սեւանում
##յքը
##որիա
ոստիկանապետը
առաջադրանքները
բազմաշերտ
բեյրութում
ընկերակցության
հրեշտակ
պտղատու
##ակիցները
կայսրությունը
հավատքը
տարկետման
ընտրանին
մերկու
նախնիները
փարիզյան
##ուղ
բաբաջանյանի
բանում
պատասխանատվությունն
տասնութից
ամենացածր
դեղորայք
խայտառակություն
զինուժի
մոտեցումն
ցուցանիշի
քահանայապետը
հիմնանորոգման
ընտրող
ֆիլմերից
##իկներ
##օնի
ընթացքն
հեղ
ճնշել
կուտակվում
պատկերասրահի
վետերանների
վիճել
##իները
ալիեւն
այցելուներին
##սումը
##ակազմի
անպատասխանատու
վաղարշապատի
տարբերել
##ոխում
բուհական
դիտարկվել
ռեզիդենտ
քանդում
ամուսինն
կոռուպցիա
ստալինի
##ահանման
արամը
ընկերուհու
պահեն
##տարի
անմեղության
##կոր
##ուտի
նաիրիտ
փոփոխվում
առաջարկելու
զարմանալիորեն
գործեն
լուի
##ալին
##ավորումների
անձեռնմխելիության
մարդաշատ
ստեղծագործություններից
քարերով
առավոտը
մահն
##ջնի
##ժեք
##չող
արտահայտությամբ
աֆղանստանի
խոտ
ռադիոկայանին
##անիստ
արթիկի
##ետեր
##սվել
##ակերպ
հնազանդ
չտալով
բլոգը
հաջորդեց
ֆուտբոլում
##աժողովը
##յութիւնը
եվրամիություն
ձկներ
գիտնականը
գնալուց
դերերում
կատվի
հետս
չը
օլեգ
##ծննդյան
իջեւանում
վատիկանի
##ածի
##գործել
ավանդության
նկարագրություն
փաստին
կանխատեսումը
կդադարեցվի
դիակի
լիս
շահում
պատգամավորներն
շահումյան
պարզեցված
պրոֆեսորադասախոսական
##դակի
անդրադառնանք
մոուրինյոն
սոֆյա
##արին
հոսող
ավտոճանապարհներին
միացան
##զերը
##լովի
##ռնա
կայարանի
հարվածային
աշխատելը
բանկից
ժակ
սարգսի
ծայր
կիրականացնի
հեռարձակման
դեպրեսիայի
կոչի
վերսկսման
տարածմանը
տեղեկացնելով
արծաթ
նկա
շենքից
չորսից
##ոցները
ռազմատեխնիկական
սպան
խավարի
հայերենը
##բանություն
##ինների
##նէր
ամուսնությունից
##ասէր
կբերեն
հրաշքով
փուլերը
թերթերի
իջնել
##ղյանի
վարակների
հաճախորդները
հացահատիկի
ենթարկվի
համալրման
ճակատային
ջերմոցային
##ակցության
##նյանը
ռազմածովային
ազդանշան
եղանակներով
##անության
ծեծկռտուք
շենքերից
քարտերի
գիւղի
վիզային
##եանն
ադամյանը
մատակարարումը
տոները
տրուած
##ձում
դադարի
հարսի
մարսել
մեծածախ
ռոհանին
գործունէութիւնը
ցեղասպանությունից
##բերում
գրան
հագած
##ւայ
մամուլին
մանրամասնեց
հայությանը
շրջվել
պահանջեց
անխտիր
##հում
հասկացություն
հաւատարիմ
հնդիկ
լիոնել
հատվածին
գեղանկարիչ
գրականագետ
գարեջուր
սապծ
##պանի
դավիդ
հարձակումները
հետեւանքը
ներպետական
##արման
սուլթան
##յէ
պրեմիերա
##ղեց
արտգործնախարարի
բարով
թույլտվությունը
ինչեր
տեսարաններ
գրաված
մեդվեդեւը
##արդի
ստեղծվի
օֆշորային
արձակած
բարձրանալու
լսիր
կեսօրին
##հատման
ընթերցողներին
ստեղծող
գյուղացիներին
հզորությամբ
պահվածքի
դատավճռի
այցելությունների
դուռն
երգիչը
ծածկագրով
հայրիկի
ներկայացնենք
##ակցութեամբ
գերեզման
թվականն
ուղեւոր
հուսահատ
սահմանափակումը
սլովակիայի
քամի
##արկվել
իշխում
ներկայացվեցին
վերք
տիկ
##ճակ
հոլանդական
պատվերը
կետն
հրապարակումները
##մկ
ակումբին
մուտքերը
ստացանք
##որդներին
այցելությունը
անջատել
աչքից
հաղթած
ակտիվները
դանակը
թիւնը
##նյան
հարթակը
հյուսվածքի
##յլերը
ժխտում
հիշատակված
հողամասերի
##նութիւն
հբ
ղեկավարելու
վարդ
##կալի
արմավիրում
դատապարտյալ
##ահարել
##բիլ
բանաստեղծություն
բնակավայրերը
կիրթ
##զների
ապահովագրություն
հանցանքի
օձի
##բուժական
##ռող
շրջանն
օղի
այդտեղից
երկարաձգելու
##սակ
մելիքյանի
քննությամբ
քսել
բելառուսական
գույնով
փոխնախարարի
գրությունը
կարոտել
##ռատ
արշակունյաց
##շակման
հագնել
կարճամետրաժ
հեճուկս
##ռին
երթուղային
հիմքերով
փոքրիկին
ղազար
անպաշտպան
պատրաստվածության
ծախսը
հարեւանության
##ասրահում
##լտի
եռանդով
մովսիսյանի
##բիի
##րտը
լոնդոնյան
մեկնող
որս
##յանց
##տեխնիկական
զան
ընդունելուց
ժամանեց
հանրահավաքին
տանեն
##խտակի
դերակատարությունը
հունով
հրամանատարության
ճանապարհներով
գերմանիայից
շահութահարկի
պարտությունից
խաղերից
վերացական
տոնոյանն
##նկի
##նվեց
լենինգրադի
կարգերի
հով
պոեզիան
ամենա
կերպարով
հնում
հարկադրված
արցախա
գրպանից
գրեցի
վիզա
##ցեմ
մտավորականների
նռան
##անյութ
##ալների
կնպաստեն
առաջացմանը
զզվելի
խառնուրդ
քր
խոսակցությունների
##ինե
մրցակցին
տուրքը
դաշինքին
կրթված
##անից
բարձրահասակ
միջոցառումն
վանա
##ապետական
թվից
հեղինակել
աներեւակայելի
նկարահանումները
գրանցելու
լարման
յուվենտուսի
տեղավորվել
##ոգ
##րկել
ամփոփված
տնտեսությանը
դաշնություն
զգայական
մտահոգություններ
շաբաթից
##հատի
աղջիկս
սեւծովյան
սպ
ամբոխի
բարսեղ
աչքերն
ավետիս
ներման
շուքով
վիշտը
##ջանի
հետընտրական
մարդասպան
մարզադաշտ
տպագրել
րոպեներ
դարձնի
լիազորություններն
վկայականը
աշխարհամարտի
թիմից
պեսկովը
սպառիչ
վտանգների
յր
ջավախք
վիրավորների
գործառնությունների
հավաքականն
##փված
դառն
կախվածություն
հիշելով
մարդկանցով
տարիք
##րեցի
բացահայտվում
գործոնի
դաշ
ամոթալի
գույներ
լցրել
հասկացության
տոհմի
հովանավորությամբ
ջերմորեն
քվեարկություն
հատկացնում
ռամկավար
առաջնորդին
բարձրությամբ
զգեստով
իրականացնելով
կոալիցիան
րոնք
պան
տակավին
թեր
մխիթարյանն
տապակած
տեսակն
գագաթնաժողովը
գյուղապետը
վարդապետի
##ռվում
ամիրյան
կազմակերպվեց
տերերը
##եակ
##կանալով
աչքիս
հոգեմետ
կուսակցություններ
ամենավատ
կրծքեր
համախմբում
մասնաճյուղում
պարտապանի
վեպում
ցավեր
##ոյանին
անմնացորդ
համաձայնում
##կտի
##ոյս
ընկերությունից
մեծերը
այգիներ
աշխատասեր
խախտումներով
##գրավել
##ժեց
խորացնելու
ամանորին
թուրքը
հատկացվող
մնացականյանն
կարում
ուռա
երը
կարողացա
վիրահատությունից
##ինայի
արեւմտահայ
գյուղացու
թերեզա
կնոջից
նախաճաշ
##ւով
ստամբուլ
տեսակից
ակտեր
դեպքերով
ընտրի
կենտրոնանում
թիրախը
##դենի
հարաբերակցությունը
նվազումը
ստուգեք
փայտ
արեւադարձային
բաբաջանյանը
գործարարի
հասցվել
քվեարկեց
սանիթեք
բույսը
ձեռնարկատեր
##ավտանգ
թվաքանակի
վաճառվող
հավանել
հռչակագրի
մարքեթինգի
շերտերը
փիլիսոփայությունը
ապլ
ջուղայի
սոսկալի
հային
քսանվեցը
##րիա
արհեստավարժ
մաքրության
##դրվել
##ետային
կիր
նովայի
ազատորեն
գիրկը
իտալ
պատմվածքը
վարդանյանն
աննկարագրելի
խմեք
օրագիր
##ոթի
ավերված
կամքից
փոխարէն
եղբայրս
քրիստիան
անջեյ
քննելու
##մյանի
##ջային
հովանավոր
մտածելակերպը
նարնջագույն
քաղաքապետն
առանձնահատկություններ
խրախուսման
ահազանգել
ընդմիջումից
ինքնանպատակ
կալիֆորնիայի
անակնկալի
մակեդոնիայի
միավորումը
##ավորումները
թողարկել
կեսն
ձախողման
վարդենյաց
քոչարի
ֆրանսիայից
##կարներ
##ւելու
կլինեին
մասերով
մոլորակը
քաղցկեղով
կարգախոսը
հասկացությունները
որսորդական
բոնուսային
ոլորտն
տեղադրեք
##քաղաքական
##միա
երկրաչափական
բրյուսովի
##ծէ
ընտրողներին
կարանտինի
մարում
քարտուղարության
##եվրոպական
բարոյահոգեբանական
##յալների
##յէն
ապարան
պէյրութ
ընթերցանության
զոհերը
պահման
օգ
իննսունականներին
հարցականի
##րեալ
բութ
գեղեցկություն
գործեց
խմբակային
##շանը
բացատրություններ
հռչակավոր
ունակությունների
բանավեճ
առանցքը
կժդհ
ավտոմեքենաները
արտացոլվում
կռահել
լճից
##ֆոն
անժամկետ
ասիա
կաթսայի
մատակարարում
մշակույթների
վճարվող
##ւղ
ակամայից
բառերն
սիրելին
քշում
համակարգիչ
##ձն
##կերպ
գրավման
մերսեդես
ներսիսյան
##ահանող
հռչակագիրը
հր
բառացի
արցունքները
ընկնի
շահնազարյանը
գերեզմանատանը
առնէ
դահլիճի
հետազոտում
##եսյան
ալեք
խելքի
հրամանատարական
կթողնի
տեխնոլոգիան
այցելուները
կայացմանը
##վանից
կոմիտեին
ձյունը
ոսկանյանը
##ադրաբար
հմըմ
հսկում
նախադասությունը
ներդրել
թափում
չելսի
պահերը
կատարողի
ձերբակալման
աշխատենք
ցրված
ֆոնդերի
բորբոքում
հայկի
ձախից
նույնպիսի
պատկառելի
##պո
լիիրավ
մեդալներ
հրաշքներ
պանրի
##ահարում
ականջին
գերեզմանը
գուցէ
հեռախոսազրույցի
մշակած
##յալի
##ցես
կախվածությունը
փբ
ավինյանի
հիանում
շտաբ
տոտալ
ագրեսիան
վող
այցերի
ճշմարտությունն
##ախոսի
ժամերը
ծայրահեղական
ուղղելով
##քերով
ընկերներիդ
սկսեալ
առնեն
եվրախորհրդարանի
պաշտպանվել
##աշունչ
ամիրյանը
##բանել
ըօ
մուսուլման
սպանությունից
սպասարկումը
արմենը
դրսեւորվել
խնդրեցի
նոյեմբերյանի
##գրություն
ավտոբուսը
դիակը
երուսաղեմում
իրականացրեց
լեւոնը
մոդելների
վարպետը
ինքնապաշտպանական
ուշադրությանն
ռիտա
կատարվելու
համատեղել
հասցնի
անօթեւան
դիմորդների
պարսկաստանի
փորձին
արջի
կներկայացնենք
գողացված
եվրասիա
բացակայությունն
իջեցնում
հրամայում
տակը
##ամեակի
##գող
բնակավայրում
չլուծված
հլը
միակը
ռուբլու
##քեն
արգելելու
եզրափակիչում
մանուկյանին
չափորոշիչների
##րկվի
կէ
կատալոնիայի
միջնադարում
ցուցակների
հանքը
մտքերն
տեղափոխումը
քարոզ
խլում
ծաղրում
կիսվում
##երներ
բավարարման
##ատիրոջ
բանասիրության
մոնթե
տիգրանը
զամենայն
ուղ
ավետարանի
կազմակերպեց
մարտիկ
միգրանտների
ռեժիմին
ցանկանալով
այդպիսիք
խորոված
քարդաշյանի
##լները
գեղանկարչության
վանքում
մելքոնյան
մզկիթի
մտածողություն
##ավորվեց
##յութեան
գիտնականի
քառասունհինգին
անտառներում
արաբերեն
երազը
տարեկանը
օսկանյանը
մարզահամերգային
անհերքելի
դրամարկղային
թերապեւտիկ
խորվաթիայի
մատնացույց
ազդեցությունից
ալավերդյանը
դիպլոմ
ճակատագրին
պատուհանը
##ետների
##ողությունը
անխնա
դեղամիջոցներ
ճապոնիան
##բու
լարսի
ծավալվող
մակերեւույթի
ուսումնամարզական
տեսահոլովակ
##կենտրոն
ավարտած
բաքվին
գտնվի
##պկ
ասատրյանի
լուսանկարել
միրգ
սպասելու
զգուշորեն
ընդունվի
քննարկեցին
արեւելագիտության
##բելի
##ծա
##մբի
ինքնամեկուսացման
հանդիպած
սահմանելով
կողմեր
նուր
##կտոր
##շտված
##ուկները
աղբիւր
առաջանա
եզդի
ծառան
հայերիս
ժամերով
մարդահամարի
չարլզ
աղցան
արդարութեան
##կրի
մարտիրոսյանն
##եղը
##ծվեն
թեւը
հուշագրի
##տութիւնը
դիտարկենք
շինությունները
սպասելիքները
##յսը
առանձնատան
վախենալով
##ցիաներ
դեղագործական
հեռանալուց
մյուսներից
անջատված
կեսօրից
մատթեոս
էքսկուրսիաներ
մեղավորներին
##ուքը
ճանապարհորդություն
օղակի
##ոխ
անտառը
բերդը
լուծումն
կհաղթի
մեծացնելու
մշտադիտարկման
պառկել
սեպ
##ումյանը
խուան
օրավարձով
##ավայրում
##սերով
համերգասրահում
##քարի
շրջադարձային
սկսվելու
##ենտի
##ղած
##ցումից
ամենաարդյունավետ
արգիշտի
ընդգրկվում
գունդը
ցուցահանդեսներ
ծարավ
հնարավորություններից
ստացիոնար
ֆիզիկոս
հավակնոտ
հրավիրվում
##րապ
գեղեցկությամբ
##գործական
##ճա
կքննարկի
հիմնահարցի
##րանքը
կազմակերպմանը
մյուսն
մշա
յարաբերութիւնները
սատարելու
##ցքի
նորածնի
վանեցյան
##պն
խոստում
հգմ
##գրությունը
էներգիայով
ծաղիկը
ֆրանս
##բեն
##գելի
ավերիչ
բարեկամները
դերասանները
հայրենասիրության
հեռացած
այվազյանի
բաշկորտոստան
իցէ
նալբանդյանն
գանձվում
##սենի
արաբիան
մանկապարտեզների
##ատուր
##յայտ
ափամերձ
դեւիդ
կաս
հիմնադրամների
նկարչության
ուժեղացնել
անհանգստացնող
բոսնիա
կերպարն
մետաղի
քննարկվեց
աշխատավարձով
նախաքննություն
աբսուրդ
կապն
հանդուրժում
ժամկետից
##խվում
ծն
կազմման
չժհ
##ուստ
աշխատակիցներից
թվարկված
կարկուտ
հրապարակելու
վառում
քշել
##անակը
##ուրան
շները
սրճարանում
դիտարկումների
թվիթերյան
հանվում
հարցերու
մամեդյարովի
նշեցի
սորոսի
վարազդատ
փուլից
բռնագանձման
##օգտագործման
հոտի
երիցյանը
միքայելյան
տոներից
եկ
վրաստանն
բարեպաշտ
վախեցնում
կանգնեցրել
պետություններից
տնտեսավարող
##թական
հիվանդություններով
##պատում
կոմիտեից
հստակեցնել
տարածական
##բարի
մարզից
պաշտպանին
##զները
##յտի
դիրքից
տրամադրելով
բաներից
##ւք
թեյը
պերճ
ափերին
հիշողությունները
էրդողան
կառավարչական
մեղմելու
հանձնարարեց
ուղղություններից
սրտային
զորամասերի
ժամանակային
խմբով
ֆոնդը
գիտելիքը
գյուղապետի
հպմհ
պողոսյանն
վզեբ
##թյունների
##շերով
կյանքիս
հաշվարկում
սիրիահայերի
ցուլ
ստորագրումը
##ելյան
##ենտում
երեւակայությունը
սոց
ֆունկցիայի
կարողանալ
##ույթների
եռամսյակային
##աքի
զենքերը
հակամարտող
ճանապարհներին
##ենկոն
անդրե
հարվածից
հեռացումը
##ասիրության
առանձնահատկություններից
պետբյուջեի
##յծ
զորամասերում
շնչել
ամենասիրելի
եռաբլուր
մուրադ
նախապատրաստված
ահաբեկչություն
խաղա
կենսագրական
կոնգրեսում
ծիծաղել
հակասություններ
հրատարակչություն
մայրերին
քրոջը
թումո
կայարան
քսանվեցամյա
անբացատրելի
իրականութեան
կատեգորիայի
ճակատամարտի
վարդենիս
սեմինարի
ստաժ
##իչների
ալկոհոլ
ճանաչելի
սգո
ստեղծուած
քսաներեքը
անհամաչափ
հաղթողները
աղա
ուլտրաձայնային
ցուցանիշն
բնորոշվում
լուծի
խորանարդ
##ահարեց
ուղեւորության
իրավասություն
սվիտալսկին
տասնութամյա
համաձայնագրում
շահեն
վերադարձրել
արձագանքելու
ժողովածուի
ներթափանցման
##անկ
##վայր
բնութագիրը
հռչակման
աշոտյանի
կառույցներից
օրենքներում
դիաբետի
##ոտին
##րանք
ակնկալիքով
աղը
հարկատուների
նահանջել
##ակներից
դասընթացներին
զգեստը
հարստացման
հատակի
ցնցումների
ընտրովի
կորեայում
հավատացյալ
ռեգիստրի
ստեփանյանի
չհաշված
կետերից
հաղթանակած
մաշկային
ավտոմեքենայով
բուժելու
երգով
օրաթերթին
առկայություն
չէիր
պալատական
##աշինական
##ժում
արժութային
լիգան
##ֆեր
գենետիկական
գնված
կայքերը
կասպից
ռադիոհանդես
անասնապահությամբ
հեռախոսահամարով
փաստեց
##դման
կուտոյանի
##նիի
հայտարարություններից
ազատականացման
պահանջներից
ամյակի
նախադրյալներ
ոչխար
գներն
զննում
համարները
չհանդիսացող
դաշնակցություն
պեղումների
դժգոհության
ընտրությունից
թեմաներից
չհեռանալու
վը
ավանում
ռեսուրսի
վտանգները
փակուղի
##ահարվել
##րակների
դատախազների
թագավորությունում
խելքը
կրելով
ներդնելու
##ագիծ
ակտիվացման
առկայ
խաչատուրովը
հոդվածին
դիրքն
կասկածները
նկարահանում
##դես
##պիայի
խառն
պարգեւներ
քաղբանտարկյալ
անասելի
խաղացողները
յունուար
բիզնեսով
պետաիրավական
ռեսուրսը
ալան
ասելիքը
ասֆալտին
սատարել
քսանյոթամյա
նախաձեռնությունն
գործընկերոջը
գրոսմայստեր
հետաքննությունը
վառվում
վերացել
##վեի
##ցից
խոսե
կազինո
##ողն
մաքսիմալ
##ւթի
ձեռնարկություններ
ութեան
բլրի
տարբերություններ
զաքարյանի
պատանին
բերելը
բնութագրել
գագաթը
թը
խնդրելու
առնվել
գորիսում
դրախտ
կոլումբիայի
տարելիցը
օրգանները
##խություն
զարդարել
սուպեր
##ցնես
որոշները
##րկվեց
գրավով
իշխանափոխությունից
ծածկագիր
լիլի
շերտով
ցուցանիշով
##րճ
մնար
##արդը
ծաղիկներով
հավաքման
ներառվում
##յվում
բազմազավակ
դադարից
հոգալու
մշակմանը
պաշտում
փոփոխությամբ
ծխի
ծովից
սովորականից
անտեր
ծառայողներին
ուղղորդում
արձանագրվում
իրավախախտման
առաջնորդական
եա
վարդանը
տիպիկ
##եվ
##ւորի
եղունգների
զբոսաշրջիկները
ընթրիք
##միայի
դարձնենք
մթության
վերադարձան
թանդիլյանը
մետրանոց
պոլսահայ
սերգո
##եյանը
բադասյանը
իրավացի
մանկապարտեզում
սակագները
##առուն
##ղվել
արցախցի
##խնդիր
##քներում
գրության
##առություն
արձանագրեց
##միր
պատմությունների
պրոռեկտոր
համաժողովում
տեխնիկապես
##արել
երեւակայական
ծագող
տեղամասի
փակեց
քարտուղարին
##ատվի
##դող
բակը
գումարել
թռիչքների
իրողությունների
վրաս
##խն
դատավճիռ
ընդերքօգտագործման
խուճապ
մեդալը
երախտագիտություն
պատկանել
վավերացնելու
##րիան
##օղլուի
ոգելից
դատարանից
կփորձենք
##իլը
երկրաշարժը
նկարահանումների
նյութափոխանակության
մակերես
մեղավորները
##ահարկ
երկաթգծի
զարդարում
վտանգներ
ցերեկ
ինքնաբուխ
մշակույթն
նկատողություն
##գման
բացակայությամբ
խորացնել
հղիությունը
վարունգ
ծրագրել
հետախուզվում
##ամեակին
կպչուն
նախագահությունը
սողոմոնյանը
զատկի
խմբից
համարելու
հաշվառումը
հիվանդանում
մանրամասնում
պատմվածքի
վեցից
ապացույցը
արտահայտման
խառնաշփոթ
գիտնականներն
գործընթացից
առաջատարը
բնագիտական
խոսվել
արվեց
գերմ
հարցվածների
մանուշակագույն
##խային
անհավատալի
##աբերական
համբերություն
նեյմարը
փոփոխությունն
անկյունը
##ատիրական
##նված
ավիատոմսերի
հիսունի
քաշով
##ուքի
երթուղին
նկատառումներով
քննարկված
ընթացակարգ
ցնցում
բանիմաց
համակարծիք
քաղաքացիության
##աշարժ
դիզայնը
հարութ
վերահսկվում
տիեզերքում
##նոց
փուլերի
լուսանկարներով
նամակին
սիրելիս
արտահայտության
մյու
##խների
##ռություն
առք
արտոնագրային
հավաստիացրել
սվետլանա
##ագրումը
##դրությամբ
##մպ
ֆիքսված
##ադրեցին
##րոս
կենսագործունեության
դասային
կանխարգելելու
տրանսֆերի
նիհար
ոչխարի
պատրվակով
զորք
թուլություն
##տանալ
անվանումները
շտկելու
հատկություններով
կանխարգելում
քննարկվելու
քսաներեքամյա
կայսր
մրցակիցների
որու
պատմելու
վախենալ
բռնությամբ
մտցրել
րոպեի
քվեն
##թր
լքելու
կոչմանը
հատկացվում
պու
##լվի
##խտակ
##պատի
ձեռնարկատիրության
վրացերեն
արմատներով
թեզը
ծածուկ
##արական
##գործությունը
##ծյալ
նավ
պայմանավորում
գյուղատնտեսությունը
երանգներ
նշա
ուժգնացում
գլխարկը
գտնելով
մենայ
մեջքին
##լալ
լույսերը
հանրությունն
պացիենտների
երիտասարդներն
ճապոնացի
մրցանակային
##ախմբերի
հերոսին
չարենցը
օղակը
##ունքները
##տուած
աէկ
գալուն
զորեղ
լսած
սօր
զաքարյան
ձեռագրերի
սողոմոն
##ղանի
հրավիրած
##տս
ասվել
վերցնենք
փոխված
##գնեց
##վածքներ
##րումը
հեռացան
##ամասերի
բաղադրիչներից
դատ
դժվարություն
դիմակների
երդում
կանդրադառնա
կլուծվի
նազարյան
պատճառվել
պետդումայի
##ավորը
##նիա
դժոխքի
հաղթելով
մոռանալով
##բաս
անելիքներ
մնացյալ
զգացումով
հույների
խաղատուն
մնացեք
օգնեք
յայտնած
##ղների
##սու
հայեցակարգ
քաղբանտարկյալների
##ղակ
գագաթնակետին
հայրապետին
հաշվարկներ
տրանսֆերը
փոխնախագահի
աւագ
գտնենք
հաշտվել
ձեռնարկը
տոնոյան
##ագիտութեան
կարգախոսով
հաղորդավար
պատրաստակամության
##հանել
գողությունը
մամ
ուղեւորը
սիրուց
վարդանյանին
քառ
##աբերում
լույսով
սալիկապատ
վարկած
տագնապ
հանձնարարական
մեղադրանքների
ութսունական
վերադառնան
##ելիքի
առաքում
բողոքն
կարողանամ
հոակ
միջոցառումներն
ոտքերով
տարա
##ստացնել
թուլանում
տարբերությամբ
##նիկը
կիրառության
##ույթներ
գործարարներ
դաստիարակությունը
պօղոս
ստանդարտներին
քննությունն
##կայանը
##ճանի
##կներից
##ոցով
##տեի
լրացել
##կցիա
##ստեր
լիբանանահայ
յում
##ւնը
բանակցություններն
կավելանա
##րգ
արտերկրի
բուժվել
համերաշխ
հկե
##հայր
թովմասյան
ջեռուցվում
##թյա
##տորի
առաջադրանքը
գոյացած
երաժշտությամբ
##դակը
հիմնուած
տղերք
##անյութերի
զայրույթը
կդառնար
մեղքով
##ացուցած
##վության
արկածները
բնակարանն
ուսուցչական
պատգամավորին
վճռով
##ոսյանի
գրէ
ընդգրկուն
ներգրավվածության
շնորհվում
շտապեք
տնտեսությունն
ուղեւորվում
քննարկենք
##կություն
զրույցներ
արպհ
դանակի
համապատասխանի
հայրերը
հավես
սարգսեան
ստորաբաժանումներ
վերնախավի
##պիական
անցնելիս
գործարարներին
կիեւյան
##տամ
դեսպանների
պատրաստվող
սարյան
##օթ
փիլիսոփայություն
##ուրայի
առաջարկն
դավաճանություն
կատարողների
հխ
մարզիկը
նաց
##վարական
դիմումատուն
երուսաղէմի
տանջում
տեղեկացել
##բուրգում
ուղղվում
չափել
ապրելը
նախապատրաստելու
շարադրված
վերլուծում
##ջեց
##քաղաքային
բարեկամությունը
զորավարժություններ
իշխանութիւնը
հրատարակության
նախաձեռնութեամբ
տեսախցիկների
դերասանուհու
##գործություն
ասատրյան
իտալերեն
խում
հարցումը
օպտիկական
նախատեսվել
ապատեղեկատվություն
վարդանի
հակամարտություն
տրամադրությունները
##ազի
##ծան
##րներ
տարեթիվը
փողով
##գեց
##դս
ազատությունները
ընտանիքիս
##աւորուած
քսաներկուամյա
գեյ
ընթրիքի
թռչնի
##երային
##ւթյունը
զգացմունքներ
հումորային
##աշենի
խմբերով
ներկայացվելու
փոխարինվել
ճակատամարտում
##խուն
առասպելական
արգելափակել
##գության
բնակչութեան
հյուրին
սերժանտ
զետեղված
ընկ
կրթությամբ
ավտոբուս
անհանգստության
իրաք
հայրենակիցները
հաստատեցին
ստեղծումն
փրկված
##բեկյանի
##նների
դասախոսներ
եզրափակել
ճարտարագիտական
այցելելով
ծում
հաղթողը
սենյակները
վաթսունական
ակումբները
լեգենդ
մտքերով
##ռեն
առաքյալի
կաննի
համալսարաններում
շրջապատին
սաքունցը
##նութիւնը
##ատեսակ
ամուսնուս
ընդդիմադիրների
ներառելով
վերջն
երկաթուղի
թեւան
նով
սով
վերջացրած
դրույթ
ճարտարապետների
մարգարեն
յս
տարբերակների
##անու
զինամթերքի
սպասելով
յեղափոխութեան
միխեիլ
պրոբլեմ
##ադրությամբ
ստոր
ակցիային
բրյուսել
դեսպանատուն
խոտի
կանխման
նյութերին
##բոն
զրուցակիցն
պաշտոնակատարի
վանո
տեղաշարժը
պաշտոնաթող
պատասխանեցին
##դված
դեմքերի
դեմքն
խավի
չգիտեք
օպել
##ադրութիւն
լաս
արտահայտած
ուզել
բազ
##ժող
##ժողով
##փերը
ավելացնենք
հանված
մասնիկների
##աթափման
բաժինն
լինելուն
խոհարարական
կրթութեան
հայտնվելը
մտածեն
պարունակվող
տէրն
հնարաւորութիւն
տարկետում
փաշինեան
նախարարներին
սուքիասյանը
արմատապես
թերակղզու
կարլ
չորսերորդ
քննադատություն
դաստիարակություն
ռազմա
փրկեց
##գարի
##լորի
խաղացողի
հայեցի
սթրեսը
##ածավալ
արտասահմանցի
թենիսի
ջրամբարի
փետրուար
արտահոսք
եռանդուն
##ակել
##իբեկյանը
լքեց
##յութի
երթուղու
ճակատագիր
պիեսի
##սիլ
վերանորոգվել
աբովյանը
հաղթողի
հոգուն
ծուխ
կզգաք
կոնտակտային
մագիստրոսական
վեճերը
արամայիս
բարեկամներին
նարեկացու
ուսուցչուհին
փչում
##վանում
գերազանցի
ճանաչող
սունդուկյանի
օրինակն
պատուհանների
##սվի
իրացումը
շինությունը
չգիտե
սեպտեմբերից
կնոջս
մասնաշենքի
մյուսից
սոցիոլոգիական
առիթներ
համագումարին
համալսարանից
հրապարակմամբ
մատուցված
շուկաներ
##լլի
հայտերը
նորածինների
սեփականաշնորհման
քանակությունը
##ագի
##ակարգ
##ֆիլմ
էթնիկական
հազիւ
առաքելութեան
ծառայություններով
նմուշները
քսանութամյա
ֆաշիստական
##յութերի
համաներում
փոխգործակցությունը
գուշակել
կեղծիքի
##պիա
բնորոշում
##աբանի
լողում
հակաօդային
բարելավումը
գաղտնիքի
դրվի
հեղափոխությունն
մոտիկից
##դրո
անառողջ
բուռ
չարաշահում
տարաձայնությունները
##թեք
տեղաբաշխման
##որվում
կհանդիպեն
օտարերկրացիների
իշխանութիւնները
կամրջից
##աբերություն
խորհր
##տինի
առեւանգել
հոգեբանորեն
պահեց
փոխանցումների
փոխխոսնակ
##ղորդման
աշխարհագրություն
եվրոպայից
ինքնազգացողությունը
ձեռնարկատերերի
ավագյան
ինստագրամի
պաշտպանն
##ասիրական
##շենք
զորս
մեդալներով
պվծ
տիար
##իքային
##յէլ
ազնվական
եզրահանգման
##խաղի
անկէ
արամյանը
արժի
ձեռնարկվել
վազեց
ֆրանկ
կեցության
հոգեբանությունը
##ղակի
դիմադրությունը
զրկվում
թեստի
շարժումներ
ռազմաօդային
փոփոխվող
անկյուններում
մեդալների
ցուցմունքներ
##րիմ
հիշեցնող
պատկերացնո
սենսացիոն
մեծությամբ
մղոն
##գները
դեղը
մանրամասնել
փոխադրումների
արշավը
միջազգայնորեն
պարգեւների
սսհմ
բուենոս
գաղութային
յաց
##անելու
##ժանանա
##որս
աղոթքով
աւանդական
հոբելյանի
ստեղծագործություններում
ստորագրելու
##մետ
ամրացնում
աննայի
զինուորական
խորհրդով
սէրը
օրբելյանը
##քված
աստիճանների
արենի
դատաստանի
կաթնամթերքի
հեռանկարների
հինավուրց
օրգանիզմ
##ջվել
նորարար
սերունդները
գեներալի
##ավորվող
բանկերում
բեռնափոխադրումներ
գործելաոճը
հնացած
նախաձեռնություններ
սեքսը
տառերը
տատիկ
տուփ
մինասյանն
ուղարկած
ռազմատենչ
սադրանք
##մեդիա
##շո
արժանացան
կայսրը
##ուղին
կտավի
տեքստիլ
օժանդակությամբ
##անսի
##վածների
հաստատությունը
վախենալու
##եմի
կտանի
ախտորոշիչ
երեսունմեկերորդ
էջերի
մասնակցին
շարունակեք
դրամա
հանդուրժել
յուղոտ
ստեղծի
##հուն
##ունդ
##ննությամբ
առաջավոր
##աձեն
##ուռ
մարզվում
ներկայացնելուց
տապալման
ավետ
պարգեւել
լեզվաբանական
##ճակի
##վադ
##տք
ներդնում
տոներին
անգամն
ապրենք
հիմնադրամն
օձ
##ակության
կարին
համարձակություն
չունե
պետքարտուղարի
վարակվելու
անանիա
գերշ
կպահանջվի
շու
ֆբ
անդրադարձը
չլինեին
##շները
գրիչ
զինյալների
տրամաբանություն
##ադրությունների
հանրաքվեին
վաստակի
##ությու
բաղդասարյանն
մետաքսի
մերկելի
ուզի
պտի
այգիները
կիլիկիա
համադրել
միանման
օլիգարխների
##ոե
##տհ
աստվածամոր
բնավորություն
երազի
հարձակողական
շոկի
ստորերկրյա
վէ
այսքանը
կանաչի
հետեւանքն
հրդեհաշիջման
պատահած
դատավորն
յուրատեսակ
սեքսով
հիշո
հանած
հոգիների
ձկները
##արարության
##նթ
թաքնվում
##խող
հատում
հուր
ձեւավորվող
պոլտավայի
սեֆիլյանը
վիճահարույց
##գե
##նյոթ
մարզիկներ
երկվորյակ
կազմակերպիչներին
շահույթի
պարետատան
բերենք
դասագրքերի
կողքը
արգելոցի
խոսեք
##ախօս
ապահովումն
միութիւնը
վարձի
բարձրացվել
մեղրը
ոչնչի
վերագրում
առաջապահ
բաղադրիչներ
համբավը
ջավախքում
ալաշկերտի
շարմազանովի
աներ
երեսուներեքերորդ
թեհրանը
պողոտան
խոցել
կցված
հիշատակել
չո
օրինագիծ
##ունու
##րաց
բին
զբաղեցրեց
կգտնվի
կեն
հումորով
մամիկոն
փրկություն
քառասունին
##այինների
##արկ
թափառող
կռիվը
չավուշօղլուն
չափն
պատրիարքարանի
սկզբունքներից
##րագիր
բանտի
դուստրն
կատարվեն
կոնվերս
շուշիում
քսանհինգից
##անոցային
լրացած
նավասարդյանը
##ապատում
սակ
##ռնված
հաղորդումներ
ուժգնությամբ
##ութիւնից
անլուրջ
ապակու
##ուժ
##չեր
բագրատաշենի
զննության
համալրված
հիշողություններ
հիսունին
##յոր
##ոցային
ակումբներ
համայնքներից
առաջնորդն
արտիստի
երեսունմեկի
հետույք
ստվեր
հանածոների
վախճանվել
վերադարձման
քույրերը
իրականացումն
հիվանդանոցներում
ձերբակալության
աստվածածնի
արար
արտասահման
կամային
հայրիկը
նժդեհ
##ագրություններ
գործարքները
##յութիւն
##ւթյամբ
ազատագրել
դիտորդի
հասկացան
ճամփորդության
մեծաքանակ
մեղադրելով
ումից
##խեք
կարգավիճակից
ձգել
անգրագետ
իմացավ
հավաքելով
գրողները
շաբաթներ
պուրակում
որոշեն
##բերան
ատեստավորման
հանրությանն
յար
##դրվում
միավորները
ստեղծագործող
վաճառքից
րակ
##րառատ
շրի
տոմսերը
##անցիկ
##ասան
##ծերը
ծաղկման
մուսուլմանական
ղազախստան
յուրացրել
սկսվի
##ագնաց
##ոնա
հորդանանի
պատճենները
##քներն
խոսող
քաղաքապետարանին
ազդող
ճակատում
խելագար
սյունակում
տոնակատարության
օրինաչափ
անհնազանդության
թաղամասը
թողարկումը
ձայնին
մարտավարությունը
քահանայ
##րացված
##րկություն
հայհոյանքներ
##աբերվել
հնագիտության
##ինգի
ծերունի
կաթվածահար
հետաձգելու
հիմարություն
##ակցեն
##ավարության
հիասթափություն
պրոֆ
ուղղորդել
անվանումով
խորհրդականը
ուշադրությունն
չնախատեսված
զելենսկին
իսպանիան
մայրուղու
ցանկացողները
անցնենք
##խարհ
ակնկալիքները
համբարձում
չմնաց
սենտ
վենետիկ
փաստաթղթային
օպերան
##ցելու
դառնալուց
չհամապատասխանող
ստեղծագործում
հեքիաթների
հրամանագիրը
ձեւավորվեց
նվիրելու
անատոլի
բազմամարդ
հյուսիսից
պայթել
փոխելով
##ույն
##ստներ
բարձրություն
հաւանաբար
պաշտոնավարել
տաջիկստանի
դաշնակցութիւնը
կխոսենք
##վանը
բարձրանա
կառուցած
հեռուստաընկերությունը
հորից
ձեռնարկությունները
շրջանավարտները
վերանորոգել
կողմէն
տեսե
##թանի
շենքերում
պոչը
վերապահում
##էթ
##յությամբ
բարվոք
կղզիներ
չհասկացա
բնություն
դատում
ղուլյանը
արձանագրենք
լիցենզավորված
պատմվածքներ
ֆիլհարմոնիկ
##րուեցաւ
նորանկախ
##նելը
ալյուր
արեգակնային
ինքնավարության
կոմիտասը
հայութիւնը
մեռնելու
միասնություն
սոֆի
տեմպը
քսանիննամյա
զույգերի
իրանահայ
առեք
հարս
ճգնաժամից
գտեք
ուսումնասիրությամբ
##գալ
սերժին
փոխարժեքով
հետհեղափոխական
##բառը
բոնուսներ
գիտնականներին
գովազդը
կանխվել
առաջադրում
թեկնածության
##ողութիւն
արեւոտ
կայսրություն
հաղթի
ջանքերն
օրացուցային
հանդեսի
վարդուհի
դեղորայքային
վկաներ
##աման
հաշիվները
հայտնվելով
նմուշի
էժանագին
մեծաթիվ
դատարաններում
ժուռնալիստիկայի
խոսուն
մետրի
##նյա
անդրադարձաւ
իսահակյան
որդիս
հրդեհային
##ամասի
ատիկա
խանի
մարիամի
մէկուն
վարչակարգի
##թիւնները
##օրյակին
կառավարմանը
մակրոտնտեսական
ավագը
ավետարանը
էլիզաբեթ
լեդի
ազգաբնակչության
մարզվել
մրցույթներ
վնասվածքները
գումարից
ինն
հարյուրը
շրջանավարտներին
բաբայանին
զորամաս
հարկվող
ցարական
ցորեն
մրցում
տղաներն
##ատիպ
##րելի
թմրանյութ
մանկատան
մոդելներ
##գործությամբ
դիմակի
զուգընկերոջ
թփերի
քննող
##գրային
զրոը
խոստումնալից
ուշադրությանը
տեղեկացավ
ակտով
ընտ
որակները
կեղծված
համակարգիչը
օրհնությամբ
շվեդական
կուտակվել
ուտեստներ
քեռի
օլգա
##գայում
##դոյի
##չենկոն
ապագայ
կշարունակվեն
հիսունից
ձեռքերն
պահենք
պարզաբանման
վնասելու
ազգն
բնակարանները
աղիների
##րովի
բույրը
միավորումների
պակասել
օգնականի
ժառանգել
հրաձգության
ճամփա
կաթողիկոսութեան
մեռնել
պարտվում
վոկալ
փայտյա
օրակարգով
դիմահարդարման
##ավորներ
##սանք
լուսաբանման
կոլեկտիվի
կոմբինատի
տպավորությունը
ալլա
անվերապահորեն
գրանցած
էլեկտրաէներգիա
հրաժարականից
վճարվել
##ագրքի
##եստը
կրծքին
մկրտչյանն
##ակվի
##այել
##ծելով
##որին
##սիրություն
գիշերով
հովհաննեսի
ֆոնդ
##ագծում
անկապ
ժպտալով
լուսանկարն
կգտնեն
մասշտաբով
սել
անմասն
անցկացվելիք
թերապիա
լեռնաշխարհի
մատնանշել
##անկար
##ղթական
##յքով
այցին
աշակերտական
ճյուղի
##թիի
դիվանագիտությունը
թորոս
գեւորգյանն
նվաճում
պատվիրատուի
ցուցմունքները
ղազախստանը
պատրիկ
##ավո
##ոզը
բեռնատարների
բեյրութի
հոգեւորականների
ճարպային
մաքրող
մոլ
շփոթված
սխալներից
##ակցությունն
կալանավորել
մատանին
մղվում
##արգը
աստիճանական
դեղամիջոց
իրենով
հաստատուած
հույժ
ստանձնեց
խաղադրույք
կուտակում
փաստարկ
անապատի
գնաս
դարձա
թաղ
լիվերպուլ
սիրահարվել
քանիսի
##գրով
արտաքուստ
լեզուները
կանչի
հիգիենիկ
պակիստանի
տպավորություններով
##ամտության
##ռային
##տություն
նոյեմբերյան
##եցու
##թյանի
աջակողմյան
համալսարանին
օգնութեան
##ոջ
##չանում
հիսուսն
արքայադուստր
դիվանագետների
թողեցին
կացվում
պատվիրատուն
սթրեսային
##կոմի
##տեսի
զինատեսակներից
ղեկավարներն
##արկության
եղջերավոր
իսկապէս
նախկինների
չկարողանալով
ռումբ
վայրկյանում
փոքրաթիվ
երկուական
թեմայում
լարի
ձիթապտղի
ճամբարը
նամակների
սեղմելով
վերացվել
մեքենաներով
տաղանդի
գիտելիքներն
ձեռագիրը
նուբարաշենի
գողանում
ընդմիջում
թողարկում
խանգարումները
կարել
հանգամանալից
նախադեպ
կոնգրեսական
տաղանդ
տեսակետներ
##ւրված
ատելությունը
բելգիայում
դիմեն
թագավորն
հայհոյել
շենքն
սպորտը
տարածվող
##աններում
ակտիվացնել
թեղուտ
մահով
տասնամյակում
գոհունակություն
թույլտվությամբ
##յություն
համալսարանն
անտրամաբանական
ընդգրկելու
հայկազ
յունիսեֆ
օբյեկտիվորեն
առաջադրանքների
ցեղասպանությանը
##րեսիվ
բաղադրատոմսը
աստիճանից
նախադասության
ուզբեկստանի
##նալու
ծը
##դրված
հազարամյակի
պաշար
սրընթաց
##գնել
ստորագրեց
##տկել
երկհարկանի
կքննարկեն
հողատարածք
առաջնորդվելով
բելգիա
սպառել
##պակի
թշնամիներ
ճյուղը
ստորաբաժանում
##կութիւնը
հաճախորդին
հիշատակության
տեղամասերում
քննարկումներից
դասախոսություններ
զղջում
##դայում
ամենավտանգավոր
ուզեմ
հետաքրքրությամբ
սիմոնյանն
վթարից
նող
շրջանակներից
սերիա
վոլոդյա
##զարդ
թեստերի
##արկելի
դերեր
զարմանք
խմբակցություն
մահու
օրինականությունը
##յցների
##տիպ
բանվորական
կաջակցի
պարապմունքներ
տասնյոթամյա
օրակարգին
գեղատեսիլ
թանգարանին
նկարահանվում
##յթով
##տացիա
ամենաբարդ
զգուշավոր
##ազան
ամբիոնում
նստավայր
պարտված
տառապել
##լիայի
բուլղարական
գործադուլ
ըսելով
հունաստանը
նչպես
տեսակներից
միտումներ
մրցույթն
պրծնել
վճարներ
##լինգ
անհնարինության
աշակերտներն
եկե
սնանկ
գնաճ
խանութից
կարագ
սրտիս
էակ
ծառայությանն
կեցվածքը
նշյալ
շվեդիայում
պատշաճի
սկսելով
ընկերություններում
հանրապետականը
հավանականություն
ստեղծեցին
աճով
վերլուծությունների
փի
բախտի
եժկ
կասկածել
##շոտ
կայանների
վերադարձվել
փոքրիկների
##ոհ
նմուշ
սպառնալիքով
բանանցի
գնալիս
իրավունքին
լիվերպուլը
չինարեն
տույժի
##բանը
թռիչքներ
լծակներ
տեսակարար
տխրահռչակ
այցելու
առաջիններից
միջ
պաշտպանությունն
դերերը
մտովի
հիլարի
շրջանակներ
խուլիգանության
կհայտնվեն
տասներկուամյա
##կայանների
վասիլի
##գործի
բաբլոյանի
միրզոյանն
վերանայելու
իրազեկում
սահմանափակված
վերագրել
տօնը
օղակների
##մության
ցուցադրելու
անապատում
շեղել
սենյակներ
##դեսի
##եսական
##յման
անվիճելի
բաժնետերերի
երգերով
կուտակման
սովորի
##շեմ
առգրավվել
շարժումն
սխալմամբ
վերաբերվող
աուդիտորական
խմորը
կոսովոյի
մնալը
ներկառուցված
թղթե
հաղթանակները
հայտնաբերվեց
հեյդար
շղթա
##ախաղերի
##ավորումներ
ընդդիմադիրները
կխաղա
##բե
##յումը
կանցկացնեն
##ազմի
##խու
յառաջիկայ
սեղմված
##շավի
ամփոփման
բանջարեղենը
##մութեան
հանգում
հեղաշրջում
մանկությունից
պատարագը
##ղվում
զոհվեց
##խառն
##ոնները
հարյուրի
մյուսներն
ավանդույթներ
պատասխանեցի
պղնձամոլիբդենային
դոկտորի
հոծ
միլիոնի
նորաբաց
կժամանի
պացիենտի
լիա
կուտակած
ունենամ
##տիր
ազգերը
բժիշկն
հալէպ
հեր
##ւթ
անօգնական
առանցքում
պահուն
##կացման
##նությունը
անառիկ
կարգավորումները
ութսունութի
պահպանությունը
ռոմա
վանում
##անուն
սովորեք
սպասարկել
ազդեցությունների
ընդլայնմանը
իմացություն
կաշվե
ներգրավումը
##ահարություն
աղաջանյանը
միջադեպից
օգտատերերը
ապահովվել
արարած
դաշնամուր
հասակից
չարենց
ցայտուն
այվազյան
անդրեասյանը
մերկասառույց
շանտաժի
օրգանիզմների
ակումբն
արդարացում
բնությանը
ձախողված
սխեման
օպերա
##բիկ
հիմնադրված
վերադարձին
վերջնաժամկետը
##նվել
հեռացում
մթերքի
վկայել
օրացույց
##շեք
##ութեանը
հանգամանքներից
հաշվարկները
ոլորտներին
##տողի
անվանելով
բնաւ
##աքարը
##ունդը
թեւ
մականունով
սառնարան
օտարերկրացի
խարբերդի
ճառագայթների
##նները
##նտ
##սիրած
չտա
արձակուրդում
դերենիկ
դիմացինի
զգան
հասա
հիշի
սառցե
սիրալիր
##շվող
աուդիտ
հարյուրամյակը
մեկընդմիշտ
տարիներն
փոխոստիկանապետ
##նակի
##քման
անփորձ
##բով
ազգագրության
մատնված
##ավետ
մերժումը
սուրը
ստեֆան
տարրը
կառուցվածքով
ուզենա
տառերով
տպագրական
##փող
աշխարհասփյուռ
հրահանգով
մեգան
##րկած
գրավականը
թեմայից
հակասությունների
դորտմունդի
եսայի
երեւելի
հանձնակատարի
ներգաղթի
ծառա
նկարագրվում
միջնաժամկետ
նորի
շահույթը
ռոմանոս
տուրից
օպտիմալացման
##աթերթ
##ախոսություն
ալիքները
##ֆան
ժամանակացույցի
կեցվածք
ճապոնիա
պարտականությունն
պէյրութի
սըր
նստարանին
աշխատասենյակում
թաղային
քարվաճառ
##գրերով
առաջադրած
մթերքներ
##վետ
ամուսնալուծության
առաջադրման
լույսն
մատուռ
յոթից
##անցող
##ավայրեր
##կեմ
ակբա
խմիչք
համաձայնեց
նետեց
վիկտորիա
ֆինանսավորվում
հարաբերակցությամբ
ճանաչելով
նմանվում
պահպանվի
սովի
ատրճանակ
կարգավորումների
կրիտիկական
հնարք
վեճեր
խաղադաշտում
կապակցութեամբ
ստեղծագործելու
օդորակիչ
ֆրանցիսկոս
վտանգավորության
##ծական
ընկալելի
հայտնած
հաշվապահ
հրաշքը
շուրջն
շանը
ամայի
կաթողիկե
շահագործում
ունենաս
##յուտը
ղեկով
նեն
տասնվեցից
##առում
թւում
հոսանք
մարվել
ներկայացուց
շագանակագեղձի
արջը
մայրիկին
եթերային
մատենադարան
մեջքը
վերարտադրության
թերթեր
խորհրդարանների
հովտում
##ւար
միջամտելու
##յշ
առաստաղի
ասլանյանը
աստանայում
խմբակցությունից
##աբուծության
աճն
սեբաստիայի
##գեք
##եսում
խողովակներ
նյութերն
տուեալ
##ինություն
##ուելով
կարդաց
նահանգը
##քեց
արտահայտությունն
գերբնական
գլխարկ
շնորհ
խողովակները
կլոդ
հատորը
տեսնեք
մարդկութեան
պաստառներ
համերգով
հյուրընկալ
մենեջեր
պարգեւի
վճարող
##ակետը
##ատակ
##տոս
դիմացկուն
մոսկվային
սեփականատերերը
##կենք
արտադրողի
գոտիներ
միջանցք
##րոյի
##ացրի
##երել
##ատնից
բաղադրության
չանի
տավուշ
##լանի
##տյանը
եղածը
լրատվամիջոցի
մահճակալի
սեւրի
ստուգողական
արթուրի
լսողական
կարեւորվել
հմայքը
մասնաճյուղերի
տնտեսությունում
փոփոխելու
լուսային
խոստանալով
փայտից
##կեցին
անվանեց
պորոշենկոն
##ամաս
հորմոնների
նախանշված
պետրոսը
սնվել
ցուցահանդեսում
##աբերեց
ավանդը
իրողության
կփորձեմ
նյութատեխնիկական
սոֆիայի
##ակվել
խաչմերուկ
կալիֆոռնիայի
հաշվարկներով
ղազարյանին
սյուժեն
##ագործների
##ինյան
##ուալ
##ջյանն
անվանումն
կենսագրության
հպարտություն
դատապարտող
կուշտ
հիշելու
տարբերակներից
##կինի
##շող
շարժվելու
շարժվող
խոշորացման
հրատարակչության
ճնշումները
սառույցի
սերոբ
արմատը
բրազիլացի
թուրքմենստանի
հուղարկավորության
մարզպետարանում
նացիստական
նվիրաբերել
ուշանում
##առուների
խանութը
պայմանավորվածությունը
պատժիչ
գործընկերություն
խուսափելով
սրճարանի
թարգմանությամբ
ներքուստ
տասնվեցամյա
##գելու
արդարադատությունը
արտոնագրի
բովանդակալից
շաբաթների
որմէ
##ափոխության
կորոշի
ուսուցչին
ցուցակներում
##գրվում
հեռվում
ճեպազրույցի
ստեփանծմինդա
##ուկներ
##չիկը
ավստրիայում
անտառները
ընկերս
կշիռ
ցավերը
քիթ
##ուղով
##ումներով
գարի
պոտենցիալը
տարածաշրջանների
ֆրիդրիխ
##զգային
աձ
կայսրութեան
մամբ
մեքսիկայում
նշեք
որդեգրման
սպասող
կանադական
համայնքապետ
սննդակարգը
##ենցի
անհաղթահարելի
կատարելագործել
հակահարված
հանրապետությունն
յանկարծ
բաշխումը
խանը
##ակենտրոն
անհամար
շնորհակալական
ջոնի
սննդակարգի
վարկածի
տրվելու
##ունջ
##րկու
դատապարտելի
համալրվել
փորձաքննությունների
քննարկումն
ճշտելու
ոսկերչական
պատրիարքը
վերանայում
փոստանջյանի
##ամբ
համբարձումյան
սրտացավ
տափակ
##րովը
առնչվել
եզդիների
եղանակների
հաշվիչ
վախեցեք
##վորումը
երեսունական
հայու
հեղինակներն
##շական
արագացված
##արկող
եզրափակում
կալանք
մեղմել
մտածելակերպի
շահելու
քրիստոնյաները
##զանդ
##մեդ
բու
իրականացվելիք
կայացնի
կքննարկենք
հարսանիքին
հարսը
վերելք
քողարկված
ավազանում
սեմինարներ
փառավոր
արեան
դիրքորոշումների
թիմեր
տերյանի
##տաժ
##ւեն
ահեղ
անկողմնակալ
լիազորություն
##աքննական
անհանգստությունը
պահվել
սկսելը
եթերի
հսսհ
մասշտաբային
վիտամիններ
ֆուտբոլիստին
ինքնաբացարկ
##ղներ
վարդի
գիտէ
կտաք
մկրտության
նախիջեւանում
ոչնչացումը
##վոն
դրամաշնորհ
ինստիտուտները
լեռնանցքը
պատմվածք
##ավայրերի
եվրոն
թմրամիջոց
հծկհ
արժանանալու
դողում
եռյակը
թանգարաններ
խմբակի
հաշվեքննիչ
միջանցքում
##անելի
##յվել
ընտրատեղամասում
հաէկ
հավաքին
քսանտասնինը
քրտնաջան
##առել
եզրակացությամբ
հանդիսացավ
##խո
ցանցերը
գրառումների
զարգանա
լռությամբ
կարողություններ
հակասությունները
համալրելու
##ժակ
կգնան
հերքեց
չլինելով
##անքից
ծնողներս
համայնքապետի
##անքին
##յոթ
զուգարան
միջեվ
##ձգության
ակունք
հաղորդեց
հեռուստատեսությունը
նստավայրի
որոշեք
##ացրե
կախել
անվանման
գերազանցության
կանգնեցնում
ուզո
ստա
բռնելու
գնահատող
ժհմիգ
ստեղծվող
##արանից
##արն
զբոսանքի
##էնք
անձրեւը
անցակետում
բնութեան
խօ
հնարավորություններով
տեսակով
փորձիր
##քերն
առեւտրով
դաշտերը
չորացրած
ֆուտբոլիստն
##րացման
##րէն
մարզպետն
##տեխնիկա
զանգեր
կտորը
շիրակը
լուիզա
ծանոթացան
ճակատագիրն
##աւորման
##ֆիա
ջրօգտագործման
զույգերը
որբ
սուրիական
##լմա
##մսի
ադրբեջանա
ափերը
կացավ
համաձայնվել
սիրելիին
վտանգում
փորձություն
հասունացել
աղտոտված
բեռլին
խելք
կենդանության
մեծը
պատրանք
ստորագրեցին
հաահ
##տնէ
կատարեալ
հավաքեց
նավերի
փոխանակումը
##ելիս
##ճեն
հալեպ
տուգանային
##խտը
##մենտի
ազատի
վք
##ոնիայում
զբաղվեն
ժուռնալիստների
վարժարանում
##ադրումը
##նվում
րեւ
օսկարի
զորավարժությունները
խաղող
հանդիպի
շանսերը
ատլանտյան
հովակիմյանը
ուսի
փրկությունը
միջնորդել
շուշին
զորությունը
կասեր
համակերպվել
հասնեն
չափանիշ
վաստակելու
տաղավար
ավետիսյանների
կազմեն
##անաք
դանակահարել
մատուցեց
զարկ
ծուռ
հետեւող
մամուլն
վատնում
տեսնելը
անհրաժեշտությամբ
ծխել
շքանշանի
սցենարով
օրյա
##ատված
դարձի
հարցազրույցներից
մեքենայում
վերադառնանք
փյունիկը
##նայ
աշխատուժի
դատապարտման
խմբակցությունները
մանրամասնորեն
մասնիկը
հարցմանը
այցելեք
պապս
ամենէն
արտադրատեսակների
լսվեց
կայանը
##չո
##ցումն
առաջացնելու
բանտերում
երկաթ
##շյանն
էֆեկտ
քվոն
##ակալման
պահանջներն
##էզ
##ցերի
ձեռնարկություն
տրանսպորտը
##ավայրերը
##բերը
առան
գցելու
սնուցման
սպասի
մաքս
##ադրմամբ
##այա
գեւորգյանին
լուսաբանում
լրանալուց
կառուցվածքում
հայցում
օրակարգից
արդյունաբերություն
բռնաբարության
զրոյից
մօր
չցանկացավ
հետազոտել
մր
օսիպյանի
թղթակիցը
կախում
##ահանությունը
##ասենյակում
##րաբյանը
զորավարժության
##գնաց
##ւորեց
##օղլուն
դամ
մտադրությունը
քհնյ
ֆիդե
մասնակցութիւնը
##յնացման
##յութեր
##վանդ
##տումը
էնդրյու
լատիներեն
շաղ
##սես
դեմոկրատների
հարրի
մասերից
մարտերի
փոխհատուցել
արփա
գրասենյակների
հավատարմությունը
հնչեցված
մասնակցեն
##ատերը
անկատար
երեքով
լիցի
հետքի
հրապարակմանը
մեղրու
տուժածներին
##անիշը
##ճեանի
լեոնարդո
հանեցին
##ացուած
##ելին
տարբերությունն
##թեզի
##կոպիկ
արձագանքներ
ընկնելով
լիզա
հասցրած
##վելը
տատը
քսանմեկամյա
##ունց
ամբոխը
արտադրվող
կտար
շերտեր
ռո
##ջած
չարը
ցեղասպանությունների
անելիս
դիմակայության
դրույթներին
երաժիշտներ
ներկայացումների
պատվիրում
վահանաձեւ
հավատարմության
արեցինք
բետոնե
զանգվածների
ցիկլի
##անվել
բախումները
ընդունելը
լուսին
մարզադաշտի
##ղեք
##եցիների
լրագրողներից
րագ
##ըն
արմատային
դարձնեն
##ամում
##ներիս
զբաղմունք
ժայռի
վերահաստատում
##պակ
փախստականներին
եղբորս
կտրելու
ռե
##յունաբերության
հիշիր
մնացական
շոուն
##արանները
##նուած
ամենաուժեղ
դրոշ
լիբիայի
##նինը
##ոդի
դիեգո
ծավալվում
զարմանահրաշ
ծանրաբեռնվածությունը
կհրապարակվի
մառախուղ
##պոլ
հասանելիությունը
մարքեթինգային
պայուսակը
##աձեւի
կանչելու
մեծացման
միջոցառումներով
նվերների
օգնեն
##ադրությունները
##ժն
անհատները
առակ
դրսեւորելու
կրակով
ռք
##ռուն
քրդստանի
ցեղը
##ներդ
պահպանի
տարբերության
##մոնի
աշակերտին
##լսի
##տացիոն
ինտեգրված
իրականացվեց
խուզարկություն
փաթեթներ
գաս
դանակ
դիմումատուի
հանգուցյալ
կոռեկտ
ձվերը
նշեցինք
ուսում
սպառազինությունների
##որական
ծաղկաձոր
հոսպիտալ
##ագրությունները
##ազմ
ծաղկաձորի
ճակատամարտը
թալանի
մինասյանին
այսինչ
անոնցմէ
դասերին
նկարելու
##բեթ
##զացիայի
ալգ
բողոքական
դրսեւորումը
զգացողություններ
իմանաս
հույսերը
նորեկ
ուղղվել
պայմանագիրն
պրահայում
տասնչորսից
ենթատեքստ
ինքնաթիռների
հաստատվի
մամա
պաշտ
ցուցանիշներով
##զվեց
##ոծել
##ումյան
##տոնը
բռնաբարել
հեռուստատեսություն
նախապայմանների
##կցիայի
բրյուսելի
մուկուչյանը
##խվել
կարդացած
ուղղանկյուն
օջախի
հավասարազոր
ալինա
ապօրինաբար
ոսկեգույն
##շենի
երգչի
իմաստության
հպարտության
հրահանգը
ճամփան
սրտերում
##չութիւն
ամպրոպի
արցախեան
հիմնավորումները
մեք
##ղները
##րութիւնները
##կորեն
հետաքրքրվեցինք
մրցանակաբաշխությունը
վերահսկելի
տարբ
բռնվել
երդմնակալության
լայնությունը
##բոլ
բացականչեց
գործիչներից
հեռարձակում
մազ
մեսսիի
սպասումները
փրկի
դիմադրել
երախտագիտության
միլիոնը
յուրաքանչյուրիս
փորձված
##ափոխություն
դիմողի
մեդվեդեւի
մից
ռեստորաններ
փլուզվել
##ոկրատական
##վու
անզեն
գրիշա
հանրապետականները
հրթիռների
մեծահասակ
ունենալն
##ագրեց
դիրքորոշմանը
խաղալով
հնարքներ
նիկոլն
առարկայից
գործարկման
թան
##յունները
ագարակ
արկածային
դրախտի
մուշ
ռեակցիա
հայհոյում
ուսին
ցուցահանդեսների
փոխզիջման
քվեարկում
խուզարկության
կարդալուց
հանգամանքն
հավելվածը
ճաշակով
##եւին
հռչակվել
ստորադաս
քննիչների
ավելացմանը
նմուշների
վերականգնմանը
##երգիայի
##ուհիները
թույն
մոլորակ
վիճարկվող
##բանությունը
անարատ
գրոհի
բարելավվել
դիտարկումներ
ամենով
ավտոճանապարհներ
էկոլոգիապես
խօսքին
փեսայի
ասածս
բացակայել
կոկիկ
հողից
տպավորությունն
##աստ
##չելու
թալինի
հաղթանակին
մտահոգությունն
պարգեւը
##եւո
##տանը
ասեր
մակարյանը
մեղքն
նպա
##ախաղի
բախշյանը
ետհ
ընտրութեան
ճանապարհորդել
մալաթիայի
փառատոնն
աղբյուրից
առաջնորդներ
ծայրին
##ղյանը
##տարել
##տէր
ճար
վերահսկվող
##իներ
քրդերին
փորձեմ
հյուրերն
ոլորտից
##եցիք
գայլը
զբաղվելը
խօսում
պիեռ
սպաներ
դիմող
խոտածածկ
մակերեսին
մերձակա
ներառելու
##ատրվել
հայրապետյանին
վարչատարածքային
##շտը
պլանում
տնական
թեկնածուական
խօսքերը
ծավալ
կոչերը
փաթեթավորման
արիության
նկարիչներ
տասնմեկից
##կարները
##նկեր
բանվոր
գազար
ձեւերից
յոթանասունական
կերակրելու
մտցնում
##թող
բիլ
բլոգի
համաձայնագրին
հեսա
հղումով
միջնորդների
քարոզը
օրիորդ
գորգի
խե
մսով
անզուգական
արձագանքները
գնահատանքի
գունդ
խորհրդակցել
կլինիկայի
տեսագրություն
առաքելությանը
հարձակումներ
սինթետիկ
վարձակալությամբ
##լոյի
թամարա
խոսքերին
վնասվածքը
ափերի
բանակցելու
բեգլարյանի
դասախոսները
տիգրանի
երեսուներկուերորդ
կազմակերպուած
վարչությունների
##եցվի
##րվեր
անարդարության
դեռահաս
եվրախորհրդի
երեւացող
կանխարգելել
մթերման
##եղի
դռանը
ընդդիմությունն
որակապես
օտարալեզու
##լոյանը
ավտոմատացված
հայագիտության
հանդիպեցինք
ռեակտիվ
սրբութիւնը
գրավեցին
##երիկ
##ւսը
արաքսի
ընդգրկվելու
խոնավությունը
կանխատեսումներ
հարգալից
հենվում
սոխը
վատագույն
##ագնացության
ակտիվացել
երկարաձգման
կամա
կասկածյալը
հավիտյան
շփոթել
սումիի
տրանսպորտ
ղարիբյանը
##անվան
բերան
ցեղ
##փել
աշակերտներից
բակային
բերանից
սյունյաց
##ահան
դադարեց
կիպրոս
համընթաց
##նդվում
##շանի
գործընկերներից
յայտարարեց
սուղ
ենթարկվեն
հասնենք
նահանգային
օրէնքի
երաշխիքը
ռետինե
##անուշ
անելիքների
զարգանալու
անթաքույց
նատալյա
ներկայությունն
նպատակասլաց
սորտերի
դառնանք
երեվանի
հայտարարություններն
հիվանդությունն
հոդերի
հրաբխային
պաղպաղակ
##ութենէ
երդվում
կոմպոզիտորի
հասարակությունից
մեծամորի
նստաշրջանում
պարտեզ
ուկրաինային
առաջնորդում
բաժանմունքը
##մուտ
եփած
իրացնել
ծովափնյա
##ջով
լուծումներով
չհիմնավորված
տաճարին
պարեր
արտահանել
դադարեցվում
դասարանը
մանուել
միութենական
մոլի
##կաց
##շնչող
պատմելով
կազդի
հետեւորդները
բեմադրել
կրճատվում
սամցխե
կառավարելի
##էնքի
բրինձ
հոդվածներում
վիեննա
գազերի
կերտելու
որոշումներից
հեռանկարում
մզգ
պետքա
##չիի
աղջիկներն
դարձ
լրումն
հրահանգել
պատմությամբ
տեսախցիկը
##այնը
##ունդի
արյունով
բորբոքման
գոյն
հռչակված
##իքի
##լյանն
##կներն
հրապարակվեց
չտվեցին
վերահսկող
առանձնահատկությունն
օսկանյանի
##ալյանը
##ապետին
ձեռն
ուշացումով
այրման
այցելութեան
երրորդն
մղվող
տուժողը
##ավաճառ
արին
միասնականության
ուղեւորվել
սրբություն
խաղերն
կոնֆերանս
տկար
##բլի
գոնէ
նպաստեց
##ոնց
ինքզինք
կայանա
մանդատից
տեսաւ
##ագրեք
##գերին
աղտոտման
աջից
գույքն
հենվելով
լեռներ
կարտոֆիլը
##բույժի
ամսագիրը
եզրեր
եպլհ
պաշտպանելով
##ետն
##խումբը
##չից
երկերի
հացադուլը
մնանք
##արիայի
հանք
հրեշտակը
նորմեր
##աչափի
ինֆորմատիկայի
կեղեւը
##բիա
անգիտակից
բարձրադիր
բողոքարկելու
ընտրելիս
իրականացվեն
հանձնվեց
պարտեզի
փորձարկում
##ավվի
##քիմիական
անդրկովկասի
երեւանցի
հասկանո
սեւամորթ
նախապէս
բաժիններում
դրդում
ինքնիշխանությունը
հռետորական
մարիան
ստվերը
##ճառը
դիտելով
եղիազարյան
եվրոյով
թողարկվել
համբուրում
մտնեն
ուզեց
պահպանմամբ
ջարդել
ազդեցությանը
կլինես
յուրե
օգնելով
ֆունկցիաների
սարգսեանի
##իտա
##րվեցին
##ագիտությունը
##ումյանի
ամրացնել
արմենի
##նկերը
ափը
երկնագույն
կրասնոդարի
համահիմնադիր
ուռուցքաբանության
##բարյան
##տելով
կառավարիչը
հաստատակամ
հրադադարը
յայտնել
##աբաժին
կապերն
կատարողը
հարձակվողը
##ամուտ
հավաստագիր
հժկ
մրցումների
պահպանեք
պարսկերեն
հարցրեցի
##պս
##սենը
երազած
թեգեր
թիկունք
տեղափոխության
գետն
կնքեց
հակամարտութեան
հավանականության
հեղինակներին
փարաջանովի
ֆակուլտետների
##իննին
ուղղաթիռի
տային
տասնչորսամյա
քաղավիացիայի
գրկել
երեկվանից
շեքսպիրի
վավերացրել
աշտարակը
իմանանք
ոգեկոչման
սկզբունքներն
օգտագործելը
##ակայանում
աստվածաշնչում
արագածի
կամովին
կարծելով
համաձայնվում
նմանվել
##ադի
##ոչ
##չուհու
բաբայանն
շվեդ
##ձնել
գերակայությունը
եվրոպային
ունիմ
ուրուգվայի
փորձարկել
սրբուհի
##ղթենք
##րենդ
անհամբերությամբ
մանկությունը
ստեփանավան
##պահ
գտնվեց
զննման
հիվանդանոցը
նիկոլա
##ետական
##հետ
հարաբերություններից
բնօրինակ
իրաւական
կորցնելով
##ասպան
ակնարկներ
բավարիան
լուսավորություն
հնարավորը
հումք
մագիստրատուրայի
քաղցրահամ
ապահովեն
առաքյալը
բնութագրող
իրարանցում
հարցուպատասխանի
նշանակեց
որակն
տերությունների
##աներում
թունավորում
կորեա
հաստատագրված
սերմեր
արտահայտիչ
գալի
դրամավարկային
ծնվ
##թոյան
##կեան
գնացած
ժիտոմիրի
շրջանաձեւ
##յված
անուշադրության
գերակշռող
##ետով
արքային
հիմնադրամում
մաշված
##ագրվի
##րիր
ախուրյանի
հագել
վարպետների
ականջը
անահիտը
անտի
ավստրալիա
արհեստակցական
կարգապահության
հայրենակցական
հարթել
տալի
թամար
հնդկաստանը
ճնշելու
շուկայից
վաճառքով
##յող
ծառայողներ
##անեմ
##մունքների
դնելը
միջինում
ռազմամթերք
քսանիններորդ
##ձակվի
##քսում
վկայությամբ
փոխարժեքի
դասընթացին
զվարճանքի
խնամակալության
միու
նախաքննությունն
անբարեխիղճ
արտահայտվելու
դոկտորական
խորհրդակցությունների
կփոխարինի
պոմպեոն
վարի
ամենաքիչը
առաջնորդարանի
կարանտինային
շո
քսանչորսամյա
##ջատում
հարմարավետության
ուսուցմամբ
սոչիի
##ազորի
##ոնիան
##վրա
##րկման
բռնկման
թովմասյանին
խոսեն
նորերը
որդիներ
չկարողանա
տեղեկացվել
##դեսը
դաշնությունում
##որել
ահաբեկիչները
աշխատանքներուն
գումարվում
ծանոթություններ
կատարումներով
տերերի
տողում
##բուժություն
բացած
մեծամասնությունն
դասարանցիների
կբացի
հկգ
մնացի
##տիկայի
հրամայական
տուգանքները
##ավորեց
##մաստ
##րանքի
արվեստն
սառնարանում
##կացող
թորոսյանն
հակաբորբոքային
մարզումների
ռազմաբժշկական
##ծություններ
##հատում
գրքերում
կենցաղի
տպավորությունները
##ունակությունը
##ռնել
անորոշության
բարկացած
ըմբիշ
խանջյան
արժեքներով
կերպարում
հոգալ
մայիլյանը
տանիք
##աշխարհի
##ւհի
անզգուշությամբ
անցանելի
իմանամ
համերգների
պարագան
##ղակը
խորհրդանիշն
ուսանել
##ագնահատել
ապրելակերպ
արյունալի
շահան
##դիման
խոզերի
մանրամասներին
քանիցս
##իսը
գիտութեան
հայելին
բողոքարկվել
կդնի
բարեկամը
բրենդի
գիշերօթիկ
խորհրդակցություններ
սպառված
##կնի
թուլացնել
կտրվել
##ափին
##բերգ
ինքնութեան
լէ
ուսումնասիրվում
##ունքով
##քուն
կոնյակ
տանուլ
փոխանցված
##անաս
կուսակցություններին
կրեն
արտահոսքի
դասագիրք
ընդդէմ
կոկա
մոդելները
օդից
##տությունը
զե
կորչում
##պոլիս
անդրադարձան
ապշած
էջերից
լկտի
մեռնի
##ակող
դասախոսություն
նկարված
շեն
##րմ
բարսելոնայում
թեւավոր
իւրոյ
թեկնածությունն
թշնամիները
##ահանում
##բյանը
##ցքում
առողջացման
կանչվել
դրդել
խաղացողներ
կգնամ
փաստարկներ
այրի
անհույս
դեսպանություն
տարբերակին
փհէկ
բացատրելու
տուգանքը
##տարան
##քերից
միջնորդական
##ուզ
արմատների
ծակ
կովի
ամենաերկար
երկարություն
փակցված
արարողությունից
բաղրամյանի
բնապահպան
ստեղծելը
իրողությունները
խոլեստերինի
մրցաշարերում
ունենային
փաշայի
##յուկ
##շներ
աթս
զբոսայգում
##ագործվում
##ովիչի
##ւյթի
դրդված
պարտքեր
վագոն
վճարած
ուստարվա
##լանդի
պահպանումն
ավաղ
տարերային
##սելու
անվանվում
ավիաընկերության
խաղակեսում
չորացած
##ակազմը
##վզում
արձակվեց
պատմեցին
ստրասբուրգում
##ճվում
դուբայում
կայքէջում
կիզակետում
ուժեղացնում
տորթ
##զիկ
##ստեան
ահմեդ
նինա
##ակտ
միատեսակ
##ղությունը
դերին
լոկալ
կնքվում
տոնեց
##ջանը
խորության
անրի
##ավորներին
զքեզ
##աւորութեան
##դիա
##տիկա
ձեւաչափ
մարզիկներին
##իզը
##ղթի
թռչուններ
կբարձրացնի
հանրապետականների
հետեւեց
մորից
ուղեկցվել
առաջնորդության
հանգուցալուծման
ներգործության
##չութիւնը
անասուն
ապրուստի
զբոսաշրջությունը
էկրանի
չեր
##ացումների
գաղտնալսման
թվերով
ժամացույցի
##ամասեր
նվաճելու
շաքարավազի
օբյեկտը
ազատությունն
անդամակցել
գրելը
կեսգիշերին
հնչեղություն
մանկավարժների
չգա
##դրական
բեմադրիչ
եկամտահարկի
մերժված
##ավորիչ
հասաւ
պատվիրակությունն
տարբերակել
##գրադի
##քվել
ասացիք
դեղի
ընդունեն
կիրակոսյանի
հյուրանոցներ
միջադեպին
##բարը
կարիճ
սակագնային
##ժէք
գիտությամբ
լուսանկարներում
հրեշտակների
ստորագրվեց
տուգանել
##ավայրը
այրվող
զիդանը
հերթապահության
մանկություն
չափորոշիչները
վերլուծելով
քարոզարշավ
##ույց
ամենամոտ
ղեկավարներից
մեծագոյն
սպարապետ
վերցրու
տրամադրությունների
քրիստինա
բոլշեւիկյան
զուգահեռներ
##վայում
արդարացնելու
լեոն
խողովակի
##ափի
էլիտայի
ընդունելությունը
լողալ
լսարան
մայիսից
պատգամավորության
քայլելու
դարպասի
իրավիճակները
օդանավը
##ցելով
անցկացնելով
գիտաժողովին
երկաթուղին
մտավորականության
սննդամթերքը
##նթաց
##ռնալ
##վերդյանը
զբաղեցնելով
ցայսօր
վզին
ֆիլմից
##արկվի
##քներին
հավատացյալների
տոնածառի
այգիներում
ավստրիա
երազները
հորինված
ղեկավարվում
տասնհինգամյա
ազատազրկմամբ
այնտեղի
իրաւունքը
##ումներից
##վարը
անուղղակիորեն
մականունը
նախագահից
ազդեցությունները
հունից
ջիմ
##արները
դիարբեքիրի
դիմացինին
զբոսայգու
խաշած
կարողա
հազարաւոր
հոգնում
##պիկը
թռիչքային
սրբոյ
վերադարձվում
վերցվել
##եկի
##ռվել
ծառայողը
հետազոտողների
##լոնի
դիտորդները
յո
##ադրամների
##ակիցների
մարզպետների
մեջլիսի
ներկայացնելիս
շեյխ
փաթաթված
##ոկ
անձեռնմխելի
հաղորդակցությունը
հայրապետ
հավաստիացրեց
սակավ
ֆորումին
##ւսի
##փակված
արդյունավետորեն
ժեստերի
##ուցվում
##րատու
ախտորոշվել
լիբանանեան
մասնաբաժինը
ուռուցքի
րդը
փոթորիկ
##ագրելու
աշխատակազմից
թագաւոր
կոկորդի
վարագույրներ
վարվող
ցոլակյանը
##ուքների
##փելի
աչքերից
ընտրյալ
գործիքային
հեղինե
նշանաւոր
սարգսեանը
##աղ
##ճատ
հաղորդակից
չեղարկվել
տեմպերը
տեսողությունը
##վածություն
անհեթեթություն
բավարարվում
խոջալուի
խորացված
հանգամանքներով
հաշտեցման
մարելու
ստեղծենք
տարածեց
փոխարժեք
##կացրեց
գործընկերն
ուղղվածություն
պիտակ
##ագայի
երկարության
սոչի
արտադրողները
նազիկ
չեւ
սիփան
##շելով
բաղադրությունը
ըրած
կարաս
մասնակցութեամբ
նորությունների
սպանվեց
##փեց
դժոխք
երեւալ
հանդիպելով
պատասխանների
սրվել
##աչ
##ցյան
գեներալը
շնչառությունը
##իկին
##խտած
##չէ
##րույթի
##ւորում
ամբուլատոր
առնո
դեռահասներ
դրույքաչափերը
կանխատեսումների
կիեւ
յաւիտենական
սննդարար
վերքերը
փորձարկումների
##անվեր
գեղեցիկի
լեո
կարդինալ
##միի
այցեր
հանգույց
մրցաշրջանը
##դոնի
##ւորել
ալաշկերտը
եթերով
իգնատի
հանրություն
ներից
խեցգետին
ծեծկռտուքի
հարգված
սենատում
##անյանն
##մատ
##որման
բրազիլիա
ելած
կարողության
կողքիս
գրադարանային
համախտանիշ
հեղուկը
սարգսյանից
##դոտ
գիտակ
դասախոսական
կանոնակարգը
##ամտորեն
զինքը
նստաշրջանը
տղերքը
արտախորհրդարանական
##ատեսակները
##լնի
ախորժակը
աջակից
իրադարձություններն
վախեցել
քարին
##յուի
##րկեք
գաղութի
երեւանցիների
հակառակորդների
ներկրվող
##էպ
##ռնող
բաղադրատոմս
հաշիվներ
պապն
պետերի
ելավ
զրուցեցինք
կուսակցությունում
##արգային
##դուած
##թյունն
կանխատեսումները
##եցիները
անվստահության
գրառմամբ
դավադրության
հեռանկարի
ղեց
սկսելուց
##թափ
գազով
ծախսվում
ստվար
այսուհանդերձ
կենում
պարտ
քաղաքապետարանն
քառյակի
աղաչում
արագացնել
էրոտիկ
պատրաստեք
պոկել
ռի
սուրենյան
գրիր
##բառ
##հեմ
խորագրի
կանխամտածված
կշարունակենք
ներկայացվի
սաթենիկ
##առական
##արանն
անցյալից
խառնեք
պատերազմներ
սկզբունքին
փակելով
քայքայման
##ւեցին
բացեք
վաղարշակ
վարձատրվող
##ղերով
բացառության
ելույթներում
վերաբերի
##ակություն
##առն
##արաններում
##սներ
ընթացքով
խաղալիքներ
համույթի
##ացուցակը
##իչներ
զենքեր
հողամասը
մալթայի
մկրտչյանին
շամշյանի
##ախարար
##ամարտը
թույլատրում
կառավարիչների
պարկը
##պվ
##փին
ավտոճանապարհները
լսելուց
կոնտեքստում
մատնում
սթրես
ցրելու
մարտիրոսյանին
յայտարարած
##տութեամբ
ավարտվի
գդհ
իբն
կասես
կնիքը
հավաքներ
ներկրում
պատգամաւոր
ռոզա
##ագրերն
բացվող
հեթանոս
վարչապետության
տարաձայնությունների
##մությունը
##շու
ասացեք
հոգեբանները
##ինում
##տներից
դաշինքն
կարողանաս
մարզիչների
շիրազի
##եսության
բռնցքամարտիկ
զբոսաշրջիկ
համր
նոքա
շին
քանդված
##ազերծել
##շաբաթյա
##ունական
թունդ
ռազմահայրենասիրական
##աթափ
##գանական
##փորձ
ծիծաղը
ծուխը
կհասկանաք
պատիւ
կառույցն
##խով
##րակը
այսքանից
կազմեր
նորությունները
վիզուալ
##աբերությունը
ամենածանր
կազմակերպություններն
կարիքավոր
ձեւից
մայրեր
տասնյոթից
տեսակետն
##ածածկ
##ակայանը
##զող
ձայներով
ցույցը
օրգան
##ֆիկացման
արմենուհի
երիկամային
մեկուսացվել
վարձել
##իտը
բունդեսթագի
հուսամ
##ացուց
##պաներ
ուղակի
սերիալում
լարային
ռուզան
ծանրաբեռնվածության
մտերմիկ
հոկտեմբերյան
ֆինանսապես
##տնեմ
անդամին
ծավալվել
հետաքրքրությունները
##գնեն
##րակները
բաժինները
ելակետային
եղիցի
պայմանագրին
վերածում
##սպի
հարցից
սանհանգույց
##ղություն
##ննի
կառույցում
պաշտպանությամբ
տեղեկատու
տղաներից
բարության
էմ
մեկնաբան
միջոցներին
##ծուի
աշունը
եհովային
կատարուի
ծառայություններն
սառած
##իթը
բնությունն
զենքերի
##լանդացի
##ոյեան
միջանձնային
ջոկատների
սխտոր
##կումներ
ֆինանսներ
բարձրացած
ընթանալ
թուլացնում
հանձնարարականը
ռեակցիան
տատս
##դեմիայի
##յուջետային
##ուրդի
դիզելային
հարի
նայող
չիմանալով
տիկնայք
փարթամ
##լլար
##ծեցին
ազատվեց
արտադրամասի
գաբրիելյան
զեղչ
մոտեցմամբ
ֆինանսավորել
##եիր
##պարի
լողավազան
հանդիպումներն
վահագնի
գրպանում
խորհուրդներին
համաձայնագրեր
մարին
սկաուտական
տնօրինում
##ախտ
ելույթին
հարկով
յոհան
պարգեւում
##յությունը
գործելով
կկառուցվի
կտորներ
համագումարում
հանս
տեղերից
##ագրվող
##զրկման
##ոչում
խաչին
##թե
ակումբից
առողջարանային
երաժշտությունն
թեմ
շոտլանդիայի
##եղների
##տրոն
լծակները
կրճատումը
մրցաշարերի
պարենի
փոփոխությանը
##րեպ
անդրիաս
բախումը
հասցեական
ոտնձգություն
բուժքույր
կտրեց
պաշտոնե
պրահայի
ավծ
զմեզ
պատրաստումը
պետութիւնը
այցերը
կիրակին
նասա
ռեժիմում
սովորության
##եկյանը
էդպիսի
կաշկանդված
հասարակաց
հափշտակելու
##ուհիների
##պիր
ափսոսանք
գոլերի
եղեգնաձոր
մարզումները
սպառումը
տեմ
##գոր
##ղացող
##րկվում
անհանգստանալու
թափված
թոշակ
պատեհ
##դարում
##սվում
աղիքի
գործածել
հետեւանքներից
չափում
թալին
հիմնում
ուրարտու
օգտագործումից
արձանագրելու
ուղեւորներին
##ամոլ
ընտրվի
մարուքյանն
արբանյակային
հորդառատ
ուղերձներ
ջէկ
քանդելու
եղող
ներդաշնակության
պրոցեսները
##ժէ
##վների
մասշտաբի
փոխանցեցին
սարդ
օհանյանն
##բբի
գիւղ
դիետա
հանգստացնող
չեխ
##ամերիկյան
արձակուրդը
խնամել
համայնքից
ռուսիոյ
վերագրվում
կոտրում
ոգեշնչում
սպառում
##վորվել
լիոն
նեյմարի
##առեց
ադամյան
թեկուզեւ
ջախջախիչ
ամառվա
անհրաժեշտությունից
արարատում
դեմոկրատներ
կգտնվեն
չեխիայում
##լանյանի
թվականներից
հաջորդիվ
տոկոսների
քարից
##ամիջյան
խմիչքի
կհանդիսանա
կշեռք
հանրութեան
հաւատքի
տեղանքի
օդաչու
##ակազմ
##մադ
առարկաներից
էկո
հնչի
ֆլեշ
##լենդ
բառիս
խղճուկ
հակահրդեհային
նվաճումները
վիրահատություններ
աշխատողին
կազմակերպիչը
հերթականությամբ
հզորացման
յայ
##անալուց
խիղճը
##տացված
##րագրի
ապրանքատեսակների
խնամում
նորարարության
##վն
աջակիցների
առաքինի
խորանի
կավե
կոնֆլիկտ
սառն
վերջից
վով
փորձությունների
օգտագործած
##դրվի
գայլ
ձայնագրությունը
պատմաբանների
##եջ
##թիւններ
##ռոտ
աստվածամայր
արժանահավատ
բացահայտումների
թուրքերն
խթանող
քաղաքականութիւնը
հզ
նկարներով
սկզբներին
##արտի
##գր
դենիս
ջութակի
վերջույթների
ահաւասիկ
մոտով
##սցէ
աստիճաններով
գեղարուեստական
պապիկի
արգենտինացի
բարեգործության
բարեկամություն
բիրտ
թղթային
պոռնո
##ագրութիւն
գծերով
կրնանք
հաճախորդ
չկայացած
##տիի
արեւկող
շվեդիա
սենատը
տառապանքի
##այանի
իտալիայից
կարիերա
հասանելիք
մեծահարուստ
##վանական
ագրիկոլ
լորդ
կայացվում
նայած
##ֆիայի
բեկ
զգուշությամբ
մեթոդաբանության
մեծություն
սոուս
ֆինանսավարկային
##ափնյա
ապրումները
խորությունը
յուվենտուս
պատմվածքների
##մբում
այստեղի
գերեզմանատան
զորամասերը
##յերի
բովանդակությանը
բուժաշխատողների
լաբորատորիաների
հայցվորի
հրահանգներ
միմեանց
##դեի
արտադրամաս
հակասություն
հահ
սումգայիթի
##շեան
##ստակ
դրսեւորած
խորքը
կել
շարմազանովն
շոկոլադ
պարերի
##կուսակցական
##մայում
բնութագրերը
հիվանդագին
պատվաստանյութի
##մշակված
##ոլը
##չային
իրագործմանը
վերնախավը
թանձր
պապիկը
տեղեկացնենք
տօնին
##եղենը
գերեզմանոց
կանգառ
ամենաշատն
կոչումներ
ձեւավորվի
նժդեհը
ուղղորդված
սարգիսը
##ելիք
հավատացնում
ներքոյ
ուրարտական
ստացեք
երգիչներ
ընդգրկող
լսողության
համակրանքը
հրաժարվելով
ջիվան
տուփի
##եամբ
##յուղը
արդարացման
հետախուզվող
մարգարեի
նահատակ
տատյանա
##ճարը
բնակչուհի
դարերով
պոլիէթիլենային
պտտվող
ստանիսլավ
##նքով
այսքանով
եզրակացությունները
երեւա
հայտարարագրման
պանթեոնում
##ագրվելու
##գս
##ժած
##յակների
##ռվի
մազեր
վանեցյանն
##կտում
##րավ
գոտիները
դեկ
դերակատար
հրեաներին
##արկելու
##գրութեան
պատերազմները
##գործող
##ղէ
մտավորականներ
շարժիչի
չարենցավանի
սաղաթելյանը
փոխքաղաքապետ
##ցյալ
բացակա
համալրում
##ակական
##շատակ
##տեցին
անթիվ
անվտանգային
քաոս
##բերտ
բաժակի
պատկերացմամբ
տատի
##տնի
անգին
##աշրջանի
##ավճար
##կվելու
ականի
անգլերենով
անսասան
թովմասյանն
հարվածների
ներշնչել
սովորողներին
փրկչի
քերականական
առաջանալու
հայփոստ
հոլանդիայի
նարե
ներգնա
սաղմոս
վախկոտ
փողն
գիտակցություն
իրավասությունների
կարիքներին
հայրիկյանը
ներգրավմամբ
շաքարավազ
ունէին
այսօրուան
լրացավ
կընկնի
հիմնավորումը
պատահարներ
տեսականի
##ասենյակի
անմիտ
արագություն
##իքների
նեան
նշանակութիւն
##ակերպվում
##ավորեք
միջամտում
սառա
քվեարկությունից
##թեց
ակնկալիք
բուլղարիա
գետերը
կարգաւորման
համակարգիչների
հանձնառությունը
հետազոտող
հետեւորդ
մոլեկուլային
արբիտրաժային
ծննդավայր
համազգեստ
մատակարարել
ռեկորդը
սովից
վառելիք
տեսակետների
ցուցմունքը
##ավանում
հրանդ
յուրացնելու
սադրանքների
քարտեր
առաջնահերթությունների
արեւն
արտոնությունների
հույզերը
անտարբերության
բուլղարիայում
չասեմ
պաշտպանվում
սպառվում
անկարգություններ
առուվաճառքի
դեմիրճյանը
կատակում
պարկեշտ
փաշինեանի
քաղաքականապես
##սիի
գեւորգի
զիրենք
թեւեր
հարցումները
ցավերի
ընկույզ
լաբորատորիայում
տուրքերի
##ականում
##դր
ժամն
միլիարդատեր
վիրավորելու
տվեցինք
##աբուծական
##ստացված
##տմամբ
հոլանդացի
պարով
##ակշիռ
##ակված
##ւուր
այսօրտասնմեկ
թույլատրված
համախոհների
նվիրատվություն
##խալ
անելիքը
ընդլայնվել
հավաստում
հեռացվում
ներգրավում
սպանեց
տեղակալների
##կցի
արձագանքն
մոտենալով
պաշտամունքը
##սանիտարական
այրված
ընտրակաշառքի
հարկն
մեդիան
պակ
պահանջվել
տոմսեր
##սվեց
##տրիկ
ալեքսան
հանձնախումբը
հաստատումից
յոյժ
պարզեց
##սուած
ախտանիշների
բաթումի
հիտլերի
թագավորների
լռեց
ծիծաղ
ռոմայի
սեմինարների
վերջերին
փողոցներից
##ադրամ
##արկվեց
##հատված
վրկ
##ճված
ապրեք
հեռուստաալիքի
բակից
դիտարկումը
խոսեցին
տեսակին
##տիրության
բաքվից
համահեղինակ
մարսի
##ավայել
##տեսություն
հնչեցնել
տեսլական
բագրատյան
կրակից
կքննարկվեն
ստորագրահավաք
սրտամկանի
սրտից
##ավարական
##տառ
ապահովագրված
ծախսի
համաճարակային
հաշվեհարդար
մոգական
##րկված
##փեն
անկանխիկ
արմատ
խնդրից
հիմի
սովետի
##թեւ
դոնոր
համաճարակը
շտաբում
տասներեքամյա
խոչընդոտող
մեկնի
մղված
սպառվել
դաշտն
լորձաթաղանթի
խաչաձեւ
կասկածյալ
հանեք
պատմեմ
##դարը
##խները
բարդության
հայրապետյանն
հրատարակչական
ներքեւից
փողային
##աքական
արարողութեան
դեպքին
խտրականություն
համախմբվել
միջնորդի
նշանակությամբ
##անեց
##զիա
##զմով
գործկոմի
ղեկավարությունն
մարտուն
##յանից
##սիրտ
##տիկական
ալյումինե
ամսագրում
ստիպելով
վերաբերմունքից
##աքրքրի
##մանում
##չե
դեմքերից
ընկալելու
հիսունական
ջութակահար
սաներին
տեսակետի
այվազովսկու
խմբավորումը
##մինի
##շտվում
արկ
լուսաբանել
ծանրությունը
ծխական
##երես
արձանագրություններ
զարմացավ
թատրոնն
գործակալի
հումոր
ճարտարապետը
##պերը
առաջարկեցին
##ձե
ահազանգեր
թեք
մարաշի
նույնական
սահակաշվիլին
ցրել
բողոքող
միությունն
##ծքային
ակումբներում
թոռը
կառլ
հարսանյաց
ներկայացուած
իւրայատուկ
կատարենք
դիմումին
կանխարգելումը
շարքեր
ուկրաինայից
տեխնոլոգիաներով
##եոն
##ճարների
##րութիւններ
անբարոյական
թուականներուն
իրադարձություններով
օրհնությունը
##իքը
առջեւից
դժգոհություններ
եդ
միջատների
##իաների
##ցների
հարվարդի
հումքը
գաղտնիությունը
զանգերի
զոհվում
ծախսերն
գորգ
հագնված
ուրանի
թարգմանված
հայն
արու
բեղմնավոր
թւականի
խաչքարի
հուշեր
շատեր
չունենան
##որության
զվարթ
ծնունդն
կառուցմանը
հանձն
տակով
խոս
ծանոթանալով
թադեւոսյանի
կալիումի
չափորոշիչներին
ալյուրի
##զուած
բացահայտումները
զրուցակցի
խորհրդանշող
հոգեհանգստի
միջոցառումներից
պիեսը
##ալից
##աստանը
ավետիսյանն
էստ
պէ
##բինի
##վանել
աստուածային
բնակարանից
կայազորային
##ապի
##ժամյա
##յուզ
անփույթ
մեռավ
քեթրին
##հմ
ժբ
հուշ
շահերով
##լէ
##լոկ
##պային
##տացնել
արվեստագետներ
##տացած
ալեքսիս
աշխատություններ
խօսքի
##երեց
##ցություններ
##ցքով
գոյանում
եպիսկոպոսի
կառավարությունները
որոց
սկսան
##ճերի
##ուլը
ավերվել
գահին
իրենը
լյուդմիլա
մահճակալ
##քիչ
գիտակցի
կեղծելու
հետզհետէ
##ֆորդ
աջակիցները
հասկացնել
տարուայ
օտարի
դասերից
լալիս
հասանովը
մաշկին
##կազմ
բանավեճը
էֆեկտիվ
հերոսամարտի
##րացնեն
բարօրության
կրոնների
սոցիոլոգիայի
##լիսը
##րանալ
կերպարին
սոթք
##ցիաները
ամենահզոր
թրանսփարենսի
ինֆո
սնուցող
քնից
##դայական
##ոնս
ազգանուն
խորհրդակցությանը
կեսում
##յերը
##տալի
##րիս
բաղադրատոմսեր
նորամուտը
տղամարդկային
ունենալուց
տրամադրություններ
##անած
դոլարից
կլանում
իդլիբում
ձայ
օգտագործի
##անքներով
##իտի
##ծությունից
##օգնության
աստուածածին
կադր
կառավարվող
##երկրյա
անցեալի
եռամսյա
##աճ
##ժեշտ
##նոյի
այբուբենի
բեկումնային
գայի
ոստիկանին
պատվերներ
##գենք
##գրվի
##շրջան
վավերացված
##շտեյնի
##ուայ
բակտերիաների
ժամկետներ
կարիերայում
կոնֆլիկտը
ներխուժում
չէք
##աղաքական
##լոգիա
##ճման
այլոք
նորոգում
##լանդական
##սիրությունը
գողական
ընկալվել
պատժում
ժնեւի
##ատա
անապատ
դիետայի
ներդրողներին
##իկան
հորեղբոր
որոշումով
տառապանք
ցուցակից
քննադատ
##անալը
##գրադ
##գրին
##զես
բիթլիսի
դադարեցումը
հրաժարվելը
փաշան
դոլարին
լանջին
կաթվածի
մեկնելուց
ներսը
օգուտներ
օգս
##ուեր
ամբաստանյալների
աշխատելիս
արվեստով
գազայի
ելույթն
խոսեցինք
շարժ
պատվիրված
պլազա
քաջատեղյակ
##ահավաքի
##ձով
գային
թարգմանաբար
կողմնորոշում
մեկօրյա
սերբ
ակօս
գործոններով
թվականներ
համամիութենական
վարակ
երիտասարդութեան
##լանդ
##խիկ
դաշտերում
թուի
հարգելու
միր
ջոնսոնը
թվացյալ
հրահրել
պարունակել
##ոքի
ազգականների
անելանելի
խաղարկային
կրկեսի
սիրուշոն
տարածաշրջաններում
անձերի
դավաճանում
դիտարկելով
չճանաչված
##յկ
արդիւնք
արտուշ
թալիշ
հացադուլի
մաքսանենգության
որոնցմէ
վատանում
քաղաքապետարանից
##աշտ
##ացիներին
##վեստի
գործակիցը
ըսեմ
ազգովի
առաջնորդներին
կեդրոն
սպառնալ
երաշխիքները
հուսահատության
ղազախական
նավատորմի
ւն
քլինթոնը
գորկու
լեզվից
տասներեքից
##րակներ
##իթի
##չաց
խթանումը
կենդանուն
հլս
շնչով
այսօրտասներկու
առանձնահատկություններին
զինվորականներ
ուղարկեցին
կուրսը
կտեսնի
հեռախոսահամարը
##ակերպվեն
##եյը
բեկանել
էությունն
ուզէ
##ամարտի
##կավոր
ընտրություններով
ջենիֆեր
##ձակման
ասոր
դժգոհել
զարհուրելի
խզել
հետաձգվում
ճառ
սուրենյանը
սպիտակուցների
##ակցեց
##զնի
##ձակ
##ջիկ
##օղլու
աշխատությունները
ընէ
ծակած
ճարտարապետությունը
ներկայացավ
##վառ
գաղտնիքներ
դիակ
լինէր
ծույլ
միլիարդավոր
ֆրանց
##ատեղին
##բաղեցնի
##դարի
##ժեցին
ասիստենտ
կատարելության
նեց
ուղարկելով
ջոզեֆ
խաղաղութիւն
կներես
հիմնադիրն
շփումներ
հոգեբանը
մովսիսյան
##ժին
խավար
կենտ
մարզիկի
ջրին
##աստանյան
##վիա
դպրոցներին
կենտկոմի
հավատացել
##ահարի
արձակի
բուսաբանական
գաղափարախոսություն
մեկնաբանություններում
նետված
պաշտոնանկության
##լեց
ներով
##տնտեսական
##ւհին
գյուղացի
գնորդի
գրողին
ընկերներս
հրատարակում
մտացածին
##զերի
##ժվել
արձան
կհասկանան
կանխատեսվում
շոկոլադի
ջրվեժ
##խոսել
բաժանորդների
ծխախոտը
հացահատիկային
քննադատների
ֆուտբոլիստներից
##անտների
զարմացրել
իրաւունքներու
քաջարան
##արտադրության
##թյո
արյունատար
նվիրվում
##իբեկյանի
անոց
մեծարգո
րաց
անցկացմանը
դան
դրամաշնորհների
տագնապը
փաստաբաններ
##ձայն
անուններն
առաջընթացին
առկայությունն
իշխանյանը
ունեցողներին
ծառայեն
յիշատակ
փրկութեան
##ռնենք
արձանագրելով
ծանոթների
հոկ
չասաց
ամենավառ
բազայում
դիւանագիտական
հանձնարարականով
հանցագործների
հեռավորություն
հետբուհական
ներկված
##դրման
ադամի
պոլսում
սրման
օսկանյան
ներսէս
ջասթին
վերսկսելու
ցնցված
մհերի
նիստեր
օտարազգի
##եկում
բենզին
իրականացնեն
լեփ
մյասնիկյան
պատկերներով
##երենի
եկեղեցիներու
շաբաթով
քայքայում
##ղնի
ծնվելուց
նախագահներին
պրիմիտիվ
ռը
սիմոնյանին
փորձարկումներ
քանդակը
##մանյան
##ւրել
առանցքի
երկարաձգվել
հանդուրժող
##ագա
##ոններ
##սէր
անկումից
արծիվ
դասադուլ
նկատառումներից
ցուցում
քանակից
թաղել
հետապնդումների
օղու
աղբյուրներում
ապստամբությունը
դիետան
համադրություն
նիկողոսյանը
ախտաբանական
հարդարման
նվիրատվության
պատմեք
##սիրության
ինքնաթիռում
խոտը
կարիքի
տառապանքը
ծնել
հակամարտությանը
##տատի
գործածության
մտածելակերպ
ուզենք
##ափոխի
##շավը
##տաս
զարգացմամբ
սարոյան
##ագրագետ
եսիմ
թվ
կազմավորվել
հույսն
վերականգնված
տոկոսները
##անսը
թյուր
իրո
համադրությունը
հետեւորդների
պարսիկ
փլեյ
աստղագիտական
աֆրիկա
դեմն
կուռ
հոսպիտալում
փակվեց
հակաճգնաժամային
վնասվածքից
ականատեսը
անձնային
կոմիտէի
շարունակեցին
տեսականին
միտքս
շահին
տարեսկզբին
բազմապիսի
հետեւություն
սուբվենցիոն
քաջարի
##բելյան
##լիտ
շուշանիկ
չունեինք
ռալֆ
գրպանը
ներգաղթյալների
ստուգումները
##հեր
##ցարան
գերատեսչությունը
կոշիկների
հակաահաբեկչական
նախագծերին
փչացնում
հաճույքի
սահմանափակելու
սաշիկ
##ամենտը
##արված
##եհ
##հրի
##ճին
երեսունմեկամյա
լեգիտիմության
ծանոթացավ
##էոս
##մացավ
##ցիներն
##քերու
խողովակների
կալցիումի
տոկոսադրույքի
##ժամ
թանկացումը
լաբորատորիան
ձրի
մեկնաբանեց
վերելակ
տեքստային
օպերատորը
##կս
##սակի
գանձ
դեսպանատանը
դիկ
պանիրը
քրեաիրավական
##կցել
##հուկային
##ուլում
ակն
հրթիռ
ուժերու
##յունի
կործանում
հանքերի
փչացնել
##լանդերեն
բուժումն
հանձնարարականների
մաշկ
ներկայացնէ
սկզբունքն
աղերս
ավինյան
բնագավառների
էկզոտիկ
հազարամյակների
պահված
##աբանների
##դորը
##կաների
##րւած
##ւէ
արագընթաց
դիվանագետը
ժամանակաշրջանին
ծառից
հիմնավորմամբ
ճնշված
տեղեկանքը
քննարկմանն
##նջում
կրճատելու
հունգարական
պահանջներով
տել
փոս
##վարման
աղոտ
գետից
դավաճանել
կոլա
յուրաքանչյուրս
պարունակության
##որա
##ութիւններն
անհաջողության
թիմով
հասկացությունների
մուսուլմանների
սանիտարահիգիենիկ
տեղապահ
ամուսնություն
ղարաբաղին
##եփ
ժխտումը
լրագրողներն
կանչ
հրավերի
րաս
փունջ
գավաթակիր
եղունգները
զաւակները
կտեղափոխվի
տեսախցիկ
##աբանները
##աձեւը
##մեկյան
անթիլիասի
գործածվում
էլիտան
կղզիներում
հաճախականությունը
ոտնահարում
պետականություն
##նդում
##տներով
ընդունմանը
հակում
մեկերկու
սնկային
սրահին
քսաներկուսից
##քե
անպտուղ
գեւորգը
գիտակցումը
ժորժ
նախազգուշացում
քաշած
գիւղը
կրթաթոշակ
քարոզարշավին
##աքրոջ
##ենիկ
աթոռում
անցանք
ռուսերենի
թշվառ
խաղատների
հանձնարարականի
##եզի
##մունքները
զրկելով
համանախագահներ
ստորջրյա
քաշից
օլիգարխ
##ատիրության
դիմակները
եգիպտացորենի
իրավապաշտպանը
լեռնաշխարհում
լերան
հերթափոխի
միլիոնատեր
ուտի
վերսկսվել
փաշինյանից
օրերով
##ուսումնական
բացթողումներ
սամսոնյանը
սունկ
տեւողության
քարոզել
##րույթ
դադարեցված
ընդունմամբ
թուլացման
կրելը
շե
##գվ
##ցվեցին
առաջխաղացումը
պատում
##նոր
հրամայել
ուելսի
քարոզներ
դարպասներ
մնաս
վայելեք
տասնիննից
##բուն
##գրվող
բռնությունները
գրադարանների
կայքէջ
հասու
պատկերացումը
ջու
ստուգվում
վերադարձա
տարբերվել
##ակալի
հանձնարարություն
հրաժարվեցին
մարության
ուղեղային
ուրախացնում
վարչությանը
տուեց
##մբերը
կարագի
մնացորդներ
մունիցիպալ
դիմավորեցին
շախմատիստ
ռուսներին
բանաձեւին
բանտային
բկմա
իմաստի
վիննիցայի
##բատ
##խիչ
ամենավերջին
ամուսնանալու
անդրանիկը
մյունխենում
չին
տասնամյակի
##շիկի
##ուներ
ադրբեջանցիներին
անալ
գը
զգուշացում
ընկերուհի
հետեւապես
մշակող
յարութեան
հռչակած
##յացման
##չելով
կրեմլը
յուվենտուսը
վերապրած
ազատագրումը
ալբանիայի
##եսյանի
անդամակցում
աշոտը
ետին
զնոսա
կայքին
սակավաթիվ
տեղեկանքի
##ադրամներ
##դալ
##վածքները
բղավում
գործէ
գրանցվեց
ծագմամբ
հրաշքի
մայա
մրցել
շնոր
պիլոտային
##զօր
արտերկիր
կոպեկ
սեզոնին
##զից
##ուական
##տացիան
զորություն
կաշխատեն
կերտած
ներդրողները
շպրտել
պաշարներ
փոխզիջումների
##ացանք
##ծք
թշնամիներին
կանդրադառնանք
ռումբի
ստեղծեն
անկողին
յիշատակին
նախանձում
չթողնել
տոներ
##ատայի
ամիսն
առաջնություններում
բռնելով
կարողանար
փորձության
##ղական
գերատեսչական
գրիչը
հարցադրում
նետվում
վերգետնյա
##ալում
թատրոնին
##արթ
թարգմ
պատկերացումներ
տեքստերը
տողը
փայ
թվարկել
ծիծեռնակաբերդ
ուսումնասիրված
օպերատիվորեն
բերին
##ատեսակը
##ոնյանը
ձիերի
յանձնախումբի
##վածը
դիմավորելու
լողացող
հրամանատարությունը
օգտատեր
##գրադում
##պանվեն
##սթ
բադալյան
բալկանյան
գունեղ
հուսադրող
նայելիս
առաքյալների
գն
դատախազությունից
իմիջիայլոց
իսրայելին
գոլեր
իրականանում
մերոյ
ուսանողուհի
##երա
կեղծել
կուտակումներ
մեռել
մրցակիցները
պատասխանատուներին
##բեթի
##շելու
##վորների
խօսի
կառչած
կատարելապես
կեղեւի
##որդն
գեղեցկուհին
կայացումը
հույները
միանալով
պետեր
##կերում
բյուջեների
չեմպիոնը
ռեժ
սեւանը
##ճակը
##ւրում
եռյակի
հիմնադրի
##եացի
##ձգություն
մոլորության
փաշինեանը
օծման
##ոծության
երկարացնելու
զինծառայության
թին
կարգավորմանն
ոսկանյան
տարրերից
ավարտվեցին
հրատարակած
ձգտելով
ներկայացումները
վստահությունն
ցանկից
##կենտրոնի
որակեց
##ռնման
եզրույթը
ժամանակացույց
մուշի
զենքն
համեմատելով
պետութիւն
##ատորների
դարուն
ոգուն
ոսկորները
տնտեսագետը
ֆրանկոֆոն
##ակայան
##իդա
##հովիտ
աշխատավարձից
գտնւում
զորքեր
թարգմանական
##աիրավական
մանդատի
քսանական
բանան
ինտեր
հակադրություն
համերաշխություն
հավերժացնող
հույզերի
նյարդերը
##ղճ
##նչող
բացահայտեց
դրուած
հոսանքը
ճարպի
շիշը
[...]
